; shape: 122 depth x 1032 width
memory_initialization_radix = 16;
memory_initialization_vector = 
01ffeb000dffe6fff2ffe4ffdeffb8ffbdfff7001a001fffecffb9ffd8ffd4fff20017001dffb1fff3006effe8fff1ffe4ffd50011ffddfff5fff1001dffd90073ffed0004ffdcffe9ffc9fff200000001ffd6ffe1fffcffe5ffd8ffe4ffdbffbafff7fff5fff2fff9ffe0001bffd1ffe4ffb5ffb500080000ffe0000fffe7fff4,
020011ff8fffcc0031ffc6ffecffeafff90000fff9fffcfffd0025ffcc0001000d002f0028fff90000fff8ffce001f00350015000500060004ffb5fff10012fff500120008ffd4fff6fffeffdf00150006fff900120010ffee001c001000090022ffeffffa00090005ffa10024fff3fff6000a0004ffedffed0011fff5fffcffd4,
03fffa001f001d00060043ffddfff0000b000e00080000fff400080013ffe00019ffe600080013ffe6fffd0007002300020009fffaffe9ffe0fff8fff2ff88fff0fffa002500150002fff8003f00120012ffe4fffc000300100009000effe10014000afff4fff60008ff6d0018000000060009000cfff300240004000d0005fff0,
0400080018000e000affb7ffe6ffe200200043ffe2ffd1001e000100470018ffecffec0007001bffdffff0002dfffaffe7001d000d000c00580000ffcf0025ffec001f000effe8001f0001fff500260004ffeffff6fffdffd6000f0011ffde00360009001bffccffebffed000a001efff80005fff9fff20027001a0019fff10005,
050014fff9fff2fff300010004ffc4001efffffff100070012ffac00080000fff5ffbe0015ffdcfff3ffe7001effffffcd0003000a0017ffe3fff30006ffff0002fff20013000300220005fffa003f000a0013fff9ff8dffda00130001000000140008000d003dffe1ffefffb40012002ffffb0002fff10024fff2001f000a000d,
0600180016fff00015ffe50013ff780013fff6000dfffefff5ffeb000ffff90015ffef0019ffc4ff93ffe7ffd4000400000005fff70013fffaffff00190007ffef0008000fffd8fff1fffe000a001c00030005ffedffdbfff30006fffbfffd001cfff40003ffebfff5fff3ffd30002000000050010000000040008fffcfffe0007,
07000f0000ffd300200019ffe9ffe90008002a001800210025000bfffb0046ffc20066ff92ffd50014fff7ff590003000b0011fffd0001fff4000afff8fff1fff6fffb000efff5ffb8fff9ffef0018001c0005ffe5fff3ffd9fff50032ffff0000ffc7ff5c0004ffe1ffff0024ffef0007000c000affedffc500000033ffc6ffd9,
08fff7fffdffe800050024fff8ff94ffed0032fff900000007ffe90019fffa0019ffe70022ffe5ffc0ffe5002800130006fffcfff90007ffeb00000011000dffee000b001fffe0ffef000fffee000100040001000d0006fff1ffec000efff6000300220000000effeffff700120013ffeefff6ffebfff6001bfff200170000ffe3,
0900150020ffd00010ffec0017ffff0026fffefffd0017fffdffed000fffe8000dffdf001dfffdfffbffd70001000dfff90003fffbfff200420009ffddffedffe7000b00060000002d0009ffea0032000b0000fff20006000fffeb0001ffecffa70015fffbffcbffe70010fffb002dfffc0000fffbffec0002001d000efff9fff2,
0a000b000efff8fff8000bfff80000001a00030011fff7fffe001fffe30001ffdcffda000c000cffdaffd5001a0007ffd7000a0013fffeffecffeffff500410000fff8fff4ffaa001f000dfff0fff50052000d0007fff6ffeefff5fffb003b0011ffd8fff7003ffff000140030000100060000fffd001b0000ffe50012ffe4ffd4,
0bfffc003700160018ff9e00000003fff800120017fff3000500130024ffefffd7fffeffe70023ffcbfffd003700140021ffeefff000430001ffba0028fff5fff2ffec0008fff3fffa0004fffe00370011000200190014ffe4fff000140023ffd5002cfff1ffc9fff70010001a000900080000fffaffdb002500100009001bfffc,
0cffe0001100000010fff3fffdfff20019ffe3000d0019000d00040021004dffebfffe0001fffafff1fffd001bffe3002fffe80016ffec000b0011fffd0020ffeffffe0011ffa10009000cffbd00060000002600200015ffdd000bfff600130005001b001c0013ffd1000f001700020018fff9000bffff00190008ffe7000d0021,
0dfffdffec00060002fff40005fff5000dfffefffc0056000b0008000ffff80006ffe60006000fffeffff900070012fffd00160012ffde000bffa6fff200160003001c003c000f0034fffeffea001bffebfff60000001cfffc00140009ffe2ffddfff9000f00010005000300070004001afff9fff70026ffdbffe7ffeeffec0001,
0e0005ffd5000affe4ffeb0027fffbfff4000dfff2fff5ffe7ffff0007fff00001000000060021fffcfffeffecffecffd000060004001f0012001c000d000dfff00002000cffeefff1fff200280015000bfff900000002ffc30024fff4000effe1fff9ffef00180014fffd0011001b00040015000efffa001b000ffffe00030011,
0f0005ffbfffd6002dffef000d0003ffee000f0013ffa7fff6fff4001100140004ffe700160005fff900010011ffe0ffdc000cfffa001a001effd9000affe10001fff10005ffdd00000003001a00110010000e0001ffe40000000e0009001b0024001a0014fff40009fffafff9fffb002f00030001003bfff3000d0001fff9fff2,
100006ffc2ffe1ffe6fff8ffd3001000000013000afffafff4fffbfffe00010009fffd00150004001cffe6fff500110020000e0008fff1ffe5fffa0001000bfff200140008fffeffdbfffc001900020009001f0000ffd60002ffe9001ffffe001e000c000200120028fff8ffe80001ffea000efffa00110023ffee0000fff60021,
11000d00000000002500230004fff8fffb001efff8ffecffe50025fff3000b0006ffedffd40002ffefffeaffef0004000600050011fff30017ffff0018fff5fffe001100050017000bfffe00010008fffcfff8ffe000000000ffbfffdc001c0016ffee0008ffcf00000011ffd1001efff8000400020023ffe600030001001d0007,
12001a00230010fff5fff20010001b001f000a000affe7000000010000ffebffaf0019000f002b00270001fffe0018ffe0fffefff7ffe0ffff0009000d000cfffbfff7000500160006fff7fff70011001e0016ffec0005001cffaffffdfffaffea0013fffb00060025ffeaffbbfffefffefff8fff2000cffc2fff9fff8ffd2000f,
13001dffeb0004ffe6fff9001cfff1ffe8fff6fffafff10007fff700320000000effdb001d0006fff800080001ffe2ffddffe6fffd002d001affea0005ffe6ffedfff6001afffdfff4000000090016fffdfff40014ffff002bfffb0002ffee0000001400000012000bffecfffafffcffce000700150021ffefffe8fff2fff3ffeb,
14000f0006ffed002dffd0fff3000100110001fff7001e000cfff900030006001cfff60008001d001bffed00050002ffd6ffc90017fffe0009ffef00040000fff9ffde00010015000a0016fffc001b0003000e0017ffedfff60007001bfffd000b001a0009fff2001a0010fff3fff5fff6fffdfff70016ffd600160005ffab0001,
1500020000ffb5ffde0009ffeefffc0012ffe70004000f0014fff8fffdfff8001cffe6fffc0001fffcffeaffeafff700480004fff9ffeefffafff90007001a000000010009ffecfffc000bfffd00020000fff4000cff61001dffdd0006fff1ffe9fff4ffeb0015001500050008000a00040005fffc0029ffe4fffc0000ffedffc8,
16000cfffaffed000900240009fffd0000fff8000c00000010fff2fff0fffb002bfffb000a001c0016fff4fff0000cff84ffdafff70010fff9fff1001afffffff900170009000900040007fff5001d0012fff6fff100220017ffdffffe0008ffed0012ffffffee000b0013ffff001e000ffffa0022ffee0009000200110020000b,
170000001a0019fff0fff9001600200015000f000a0021ffedfff50026ffeb0002ffeafff60000fff1ffe2ffdf0011ffeb0006001dffe8ffe5fffd002d0009fff700020017ffe9002a0003fff00018ffef001dffee0000ffe90004001300370009ff6f000e000f0014000800100004000c0003ffea001fffedfffdfff7ffe50025,
180022fff5fff900120013fffdfff9000100140067000f001200130046fff0fffeffcd00180019fff5000d0000fff7ffec000d0013fff5fffdffd8ffe7000dffe6ffea0016000100060003ffa60038001cffedfffeffe3fff200010013ffe9000a00030002000affff0018000efffa00110003ffb8000a0031002bffeffff1ffe9,
19000cffda00000009fff2ffeafffafffe00120007ffe9ff9d0010001bfff7fffbffef000d0018fffbfff60011fffeffea001900060014fff1000f00030019000500180002fffdfff8fff3000b002f0007000bffefffd9fff4ffaffffd001dfff80000fffcffea00090005fff00012000a000a00070010003300030006fff3ffdb,
1afffefff20003ffe30028ffe9ffeffffe000a0005ffc9ffd9fff9000f0002fff5fff7000a00030004fff0fff6001bfff8001c0011ffddfffbffdefff7fffafff8ffeb0021ffe1fffafffeffe0000a00160010ffeefffc00150006ffdf0013000500060010ffe70008000800050013ffe8000cffedfff1001000020009ffe6ffff,
1b0003fff7fff7ffdffff50031fff2fff40016000dfff6ffe6ffe7ffee0001fffc000dffe40009fffcfffb00060005ffd70017000e0001fffb0000ffd20019fffd001afffb00130010000a002600270007ffdaffe50004001000030017001cffedffee0010fff20009fff8fff0fff3ff77000bffff0002fff7ffe1fff70007fff8,
1c00000000000f0002000b0008003f000a0011fffb0008ffcf0006ffde000fffe60007fffb0001ffdeffe8fff9ffd5fffd00020003000d000bfffcffe1ffedfffeffebfffdfff40000fff8fff200040019ffd4ffed00130025ffa700090000fffffff0ffff000c000ffff4ffb70003ffef0004fff9000affeffffafffcfff40006,
1d00110000000e000dfffcffd9fff2fff7fff9ffa8ffe6ffec002cfff9ffe4ff77001effeefff4ffffffe90008fffd0003fff60003ffed000fffe00000000b0008ffea0012fff2ffeb000200020024fff8fff9000900120025fff10020fff1fff60004001d0002000f00040000ffdcfff7fffe0009fffdff9800130028000afff3,
1e0015ffd90015fff3fffdfff1fff3ffe8fff90001ffce0011fff00002000dff9f00030003000effdbfff9000cfff3fffeffee00130009ffdcffecffe000130000000d0005001fffe10009fff8000600220001fff7ffedfff7ffefffd2ffdcfffdfffd0001fff700100001fff30017000b0002fff3000cfffe0002fffefff90009,
1f0016000d0003fff10012000bfff60002fff5000ffff20019ffec000c0000fffdfffefff20009fffcfffefff7003fffe3ffdd001fffddffe6000fffe4fff4fff6ffee0007ffea0003001600010026000b0005ffdffff700180000fff400090003ffcd000c00000007ffebffefffe0fff900070010fffcffee000bfff7fff0ffda,
200008000affff0001ffec003ffffefffcfffefffefff600140001fff8fffa0007fff1000affedfff0ffecfff6ffd9fff600060014fff80003000affe2fff7fff80000000cfff500000020fffc00080008ffe2fff2ffda0004fff9001ffff5fff3ffdefffffff30009001100050005ffd60001ffdd0015fffcfffefffcfff3fff2,
21001300190003001b0009fff2000e0018000dfffaffe7001cfff6ffd500020005fffd000b000a0016fffe0017fff5ffecffce000d000dffcfffefffe9fff10006ffcffffefff60005000bfffe0032000dfffd00010003ffd4ffcafffb0007ffec0017ff9c000d001e0008000effff00050003ffff000b000b0005fffffff10003,
2200150016000200060002fff1fff50002fffe005bffe8fff0fffafff6ffea0002ffe6ff8300060002ffe5ffa1000c0011fffe0028fffbffdafff60018005ffffcfff2000c000bffb3fffdffe5002dfffc0011ffdf0009ffb3fff6002d001ffffb002bfff8ffedfffafff6fff80010ffeb000a000a000a0000ffd70003ffe2fff9,
23fffefff7ffdafff8fffa0007fff6ffea0016000c0026fff50004001500080009ffd3000100040000000200100001fff6000000140007fff5fff20011fffbffdd0018ffe10009ffec0008ffde0045fffb000fffee000d000e003e0007ffebfff200190000fff6000bffbd00180016fff40002ffeb00190039fffeffc10000000a,
24ffee00010000fff3fff90003fffefff400010009ffd8fffd0009fff50039fffdffe3fff6ffef000cffeefffd00010023000f0019ffe9fffd0011002b0004ffd8ffe80002fff6ffeeffff00100003fffffff60005ffe4ffe7000200170004fff00013001b0001001b0001001dfffeffe90005001c0005001600120005fff7fff7,
250005000a001700010019000dfff300110004fffeffedfffefff6fffaffeaffe9fff0ffef0013000100000023ffebfffa0025001800050006ffebfffffff2ffe7fff20011000ffffdfffbfff0000200090004000bffe4fffdffe4001c0027fff6fff000030028fff9ffeffff1fffbffd90016fffc000effec00030007fff6fff0,
260006fff4000d001f000800070012000c000effeafffaffe5fff500160000ffe6000afffeffe80007fffd0001ffd8000200110010001000020005ffeb0003ffdbffee0004ffc60005fffdffea0006000100070005fff20008ffd0fff80007fff5fff6000dffe2fff70000ffedfff500030011fff90006ffeefffa000dffef001a,
27000affea0006fff8fffdffe3ffeefff7000affec0006fff8fff1ffebfff6ffe6000dfff7fffffffefff4ffd40010000dfffe00030004ffeeffe9fffb0020ffe9000a0000ffe900000000000e000700060010001b0008fffdfff3fff0fffd0000fff70003fff70005fff3fff6fffcfffe0005fff2ffffffb7fff2fff80010ffea,
280009fff60004fff6fffb000f001efff90001fff3fff90000ffee000dfffcffd6001300000006000600050011fff900040000fffd00010000fff4fff4fffbffea0004fffa0019fff200000002fffb0020fff50001000dffed000fffdffff8fffb0009000b0003fff1fff0ffdefffc00080007fff9001cffd0000a00230005fff0,
290009ffe30011fffc00080001fff9fffcffeffff0ffe90006002bfff4000cffe70003fff1ffea000000000009fff4fff2fffa0003ffe9ffffffd60001ffcbffe40004001afffdfff20007fff6ffffffffffffffd3ffff0003000c0006ffedfffd0005000cfffc0004fff7fff90002000a0007fffffffdfff7fffd00060014fffd,
2a000efff300160001000fffe6fff200020000ffef001d0012fffaffe4fff0fff7000cfffdfff90000fffdffe7fff10005fff700060004fff3fffffff00001ffdbfffffff40008ffe6001c0012000f0010fff8ffe70009000400090004fffdffeefff5fffe000bfffc0003ffecfffafff40003fff9fffb00040003000bffe80026,
2b001400180008000cfffcffebfffb0003fffffff0ffef001c00000012fffafff3fff4fff9fffe0000ffefffee000d0000fff9fffd0012fff0ffef000efffbffeafff60009ffe700080019000c0000fff8ffef0000ffee00160009fffcfff2fff2fffaffeeffb3fff30000000e000bffda0008000b001afffdfff40004ffe1ffe3,
2c0013000a0008ffde0000fff3fffc0000fffefffdfffc00050000fff1000d0007fff2fff8ffcf001a0001ffe1000bffea00060005fff9000a0002fff7001dffe3000dfffffff9ffff0004000000160013001a002cffd2fff7fff60002ffffffd2ffa9ffb6000e0009fffa001cfffc00030000ffe2000b000e001f001300120010,
2dffee0005ffeb00240011001800000025000bfff9001dffeaffc2002300080013ffdeffd8ffffffe9ffe7ffe2fff7ffefffde000400160013ffea0068fff7ffd40000fffffffdfff9ffedffb5001c0008fff4fffd000b001600000017ffedfff900020009fff30009ffa4000fffe1ffd8fffcfffd0010ffed000affd100130010,
2efff0ffdefffa000b0009fff60000fff0000200200028ffdd00090025fff6000bffefffc8ffd1ff96ffcb0000ffdafff8fff40018ffecfffc0006001d0000fff9000e000f0008ffff0000ffde000400120003ffe80000ffe7000a000efff1ffd9ffc100040028fffeffeafff70005001afffffffafff50005ffe4ffebfffbffff,
2ffff9fff8fffa0016001dffe0ffff0014000f0007ffec0003fffc00020002fff1ffddffd4fff90020fffb001b0015001700060013000effdb000c002ffffffffaffdd000b0013001cfffffff8ffff00360033fffafff9ffeafff3ffd90017fff800080018fff00011fff3ffffffffffdf0005fff4fffdfff00003fff40034fff5,
30fffe00080009fff4fff7fffe002100140015ffdfffd5ffe70004ffdafffcffeefffffff4fff7ffeefffe000a0012fff00011ffed0023ffebfff3000dfffefffb001d001bffe6fffdfffefff1000c0007ffec0007fffc0007000fffec0007fffb00030006ffe1000c0014fffffff7ffe2000500260007ff7effd6fff4fff5fffe,
310003000f001efffafff2fffcfff5fffa0007fff80005fffafffcffe7000bffe600060000fff8000cfff0001f000cfffdfffbfff9fffefff30002ffeffffbfff4ffe3000bffe8fffefffe000500000019ffdb00200018ffffffc0ffe00001fff00005fff8ffee0008000dffee0019fffc0015fffcfff9ffed0001ffe1000b0009,
320002fff4fff9ffe10002fffa00000002fffefffdfffcfff5ffff0019fff3fffb0000fffb000b0002ffefffdafff6fffeffecfff8fffd0005fff30002ffe3fff90008000b0026ffff00010004ffff0016000000110008ffebfff50022fff90004000900070003fffa0007fff4fff100180013fff60004ffa60006ffe8fff8fff8,
3300090004fff8fffe0000fff2fff3fff8fff7fffefff7fff2fff1fffefffafff1000afff40019000a0004fffbffdcfff4fff5ffde0007000afffdfff80012fffa0003001ffff600130002fff4000a001afffcfff5000bfff40011fff1fff8fff9fffc000d000a00060005fff8000d000d000afffc0002ffea000300000005ffea,
340004ffe70010000dfffc0006002afff0fff0fff4ffec000bfff7ffecfffdffecfffffffcfffc00000000fffb00080017fffeffe7fffaffff000afff7fffffff9fff20020fff900110008ffde0000000e0003ffee0003fffc000fffedffeefffafffb0000fff6fffd0001ffeeffff000a0007fff60004fffdfff6ffe90004fff8,
35000c00120013ffddfffa0001fff7fffefffefff2000600020028ffed0000fffa0007ffec00110008fff00007fff5fffbfffa00000016ffe00004ffe1fffcffff000900050002ffce00230015ffff00250005ffef0009fffe0007fff6ffe8fff2000500010007fffd0006ffecfffcfff90005fff9fffbffff0006ffe400100015,
360012ffe8fff800000011000dfffdfff80001fff8000c0012fff3fffdfffcffd80000ffeffff1ffe9ffe5fff7001d00060000fff1fff20007001c0007ff9cfffcffeb001c0007fff5001b0019fff5000fffff0016000200110007fffdffecfff10000ffe6fff5ffff0011000bfffffffe0000ffff0009000efffefff80000ffbb,
3700040009000dffe4001200010002000300000001ffe0000f0015002ffff7fffaffd4ffcdfff1fffcffdafff6ffd5000dffeaffecfff2000c001200020002000000030008fff2fff00018fff8fffc0021fff60005ffdd0003000e0015ffe8ffdfffe20000fffa0016ffe6000bfff5000ffffc000afffa0002fffd0010ffd80006,
380008fff9ffef0001000cffe7fff2001a0001ffea0019fff5fff8000300050002ffdbffcf000bffa2ffd4000a0004ffecffce0011000e001b0002fff7ffff00060001001800160013ffffffcb00130016ffd900030013ffc9ffd7000c0001ffebfff500270006fffeff9100050008ffe90000fffbfff4000a0000ffe2ffe80036,
39fff1fff3ffc0000a0003ffe3fffbffdd002cfffd0012ffe200100021004affe0004e004affe8ffedffe3000d0017fff6ffee0017001e0000000afff9fff5fffc0000fffdfff4ffa9ffeffffe00080005ffeefff70000fffeffec00210004fff6ffceffe0ffedfff50014fff3000f00120006fff700250010fff2ffc8ffcd0022,
3aff9efff6ffed0005002a0014003500090013ffef000900160003fff9ffde0000ffffffa2000f003cfff6fff8fffeffe4000c0009ffd20010000d001400050009fffe0001fff9ffe30000fff400280008fff8002f00070020ffd1001ffffaffe3000c0000fffa001c000dfffb0000ffd3001000010012ffa0000c00030005fffc,
3bffe7ffda0002fffbfff2fff3fff6002a00070001fff7fff5fff0000d00020000000dfff00007fffb000e0014ffdf00070012ffe4ffdeff58fff3001c000b00000003000fffff0000fffdfff30001001f00000009fffb0000ffc8000bffe60002fffd000affef0000fff300000007ffdf000efff60036ffb1fffbfff2001d000a,
3cfff3fffe0009ffedfffcfffefffe000b0011fff3ffe4fffcfff4fffafff10004000500030008001ffff6000afff90003fffafff400080011001afff5fff6fffcfffb0023001c0005fff800180018fff00012000900050006ffc3fff3fff5fff1fffe00100009ffe60003fff80009001d0019002e0004ffe60000ffe6ffff0012,
3dfffbffbb0008000effff000efff2fffffffffff50008fff9ffe5fff7fffb000300040003001d0002ffe4ffdcfffe0005fffcffeffff10008000fffe8ffee0006000a0001fff80005fffafffefffe0003ffe60000fff60000000affeafffefff700060005fffefff100050005ffe10013001d00010038ffec000cffeffffdfff4,
3e0005fffffff80006fffdfff9fff6001600000010fff5fff6000800060027ffff000bffca00150006fffdffff0001000cfffcffe2fffd00070001fff8fffa000100090008fff5fff7ffff001500130007000100020018000b00130004fffb000cffea00010004ffd80002fffbffeb00150017ffee00290001ffe00009fff0fffc,
3f0000ffb7fffafff8001e0002fffcffe2ffe50000ffedfff8fff2fffdfffdfffc0009000a000f0002fff30011fff70003fff8fff0fffdfff2fff50001001200000009001cfff70000000affa70005fffbfff7fffd00120003000b0000fff800030016ffeffffffff80004fff8fff200010007fffa002dfff7fffcfff800000028,
400000000000030008ffecfffb00320003ffdb00020003fffafff800040006ffed000afffbfff9001afff6ffeffff30000000cfffaffd7ffa50025fffafff7fffd000e000afffe0018002700110018fff8fffeffc1000dfff30010fff6fff7fffe0005ffcffffbffed001affe3fff500030001fff800130006000bffe60012fffd,
41000000120002ffe9ffe2fffbfffffff6ffabfffdfff9fffc003bfff70000ffef0011fff1000900000008fff6fff5ffee0021fff6000600020005ffedfff30000fff8fffbfffb001700250003000800190014fff9ffef00180014ffe7fffd00000005ffe0001afffbffed000c00070005ffef00070029000cfffbffd7fffffff1,
42000cffec000d000affdcfffffff2000dffb4ffe90005000bfff8ffe6fff3ffae0007ffe5ffd00055fff8002e000400140008fffe000d00130015ffd2fffb0005000500210003fff60015001f002b0000ffffffeeffd7ffe70018000b000f00030015ff6dfff00027fff50017000effffffff0009000d001b001e0006fff00017,
430007fff8ffe600030014000dfff3000fffcc000bfff8fff8ff3e0007005affbf005f00450001ffd9ffd40021fffeffe700270008001b000400090018ffe9ffffffebffe3ffd7ffdfffffffef00080010001a0008ffe20000ffea0026ffff0010ffc0ffd0fffdffe3fff0fffa000700130000ff6c000f0014fff4ffb1ffa4001a,
44000d00170004ffd8fff1000bffc6fff20014ffe80011fff4001600050000fffaffddffe9ffccffd6ffe0ffff000e0009fff4fffbfff1fffcffeefff70018fff3fffa0008000a00080008fffa001f0007001cffec00060021ff85001effdfffc5000e00180000ffe90020002e0018fff6ffff0008000a000dffc30019ffc10018,
45fff000090014fffdfff0001a0012fffa00100003fff4001cfff90020fffb000bffe7ffd8ffdb000bffea0010fff0000c0014fff5001affd100000007fff300020005000cffdefff9ffff0002000d001a00080016fff3ffc60006ffebffd8fff6fff0fff6000c001bfffdffeffff0ffd5000cfff80002fff7ffe4001900140001,
46ffdf0001ffd5000efff7fff2ffec000ffff9ffffffdd000c0011ffef000400130002fff3fff6ffdffff1fffb000dfffc0013ffc50000ffef0007000bfffcfff8ffe200190011000c0000fff20011ffffffea0016fff50008fff9ffd1ffecffed0005000400000018ffe90011fff9fff8000efff5ffffffe5001d0001ffe10004,
47fff5fffeffdf0000000cfff3ffeb001700000006ffd60000fffefff9000400130012fff8fff80004ffef0011000000080001fff4fffbffef0000ffef0000fff80015fff4fff3fffafffafffa00230006fff9fffbffe7ffeafff20001fff4ffef0007000400020016ffe7fffdffeb00150011fff8fffbfff1ffeb000200150018,
48fffcffff0000ffff0006fff9fff600020002ffecffd7fff9fff0fff5ffff000b00080003fff4fffbffe7ffe4fff50004fff30006ffdf0001fff9ffe30006fff90000fffbfff30006fffc0002000f0001fff200070008ffe8fff1ffefffeffff3fff9fff3fff0fff6fff10000001800090014003b000a0004ffeefff8fff3fffa,
490002fff5000d0006fff80002fff80002fffdfff9ffc4fff7fffefffefff600030010fff8000500050003fff0fff90001ffe2fffa0005fff80009fff8fffdfff3000dfffcffff000efffe0018001c000d0016fffd00070008fff80000fffb000f0015ffdefff9fff0000bfff4fff300130019fff5000a0008ffe8001bfff8ffe7,
4a0003ffeffff3ffe9ffe8fff3fffafffafff50006ffe3fff0fff70016fffdfffe0003fffcffe0fffefffd001efff0fff2ffebfff5001dfffbfff1ffe70002fff2ffff000cffe50005000cffa7001b0001fff4ffeb0002fff40008ffef0007000bfff2ffd40000fff7fff6fff70008000c0011fff3000affff001afffa0017ffc3,
4bfff90015ffd3000affe70011fffffff3fffafffbfffe000100040009000100020013ffea000f0001ffe800170024fff4fff0fffaffecffe60015fff9001efff0fff8ffef0000fffc001dffd600140002000000060004fff7000efff5000e0003000cffd700000016fff7ffecfffd00180002fffcfffaffffffef0002fffcfff2,
4cfffb0000ffe000000003ffe7002afffbffe5fff30002fff8000effeffff600050001ffddfffbffe1fff1ffe40000000d0007fffd0005fffc00120000fffefff9000e0008ffe8ffe70026ffc100190000fff10010ffaa000b000b000300170009fffdff8a001600090008000ffff3fff50006ffff00050005ffe0fff9fff1ffac,
4d000c0001ffec00200007fff5ffe9ffe5fff0fffa0008fffe0019fff700010007ffe3ffeaffbc0004fffefff2000000190004fff3ffedffdbffffffcdffdc0000ffff0009002a0006001400000019001cfff5ffea000cffd8fffffff80013000dffd9ffe8ffe9000d0003000c000affe70001ffff00020012ffe90008002a0001,
4e001affa10016fff6ffff002fffee00370007000a001afffeffed000200040015ffdefffe0003ffd8ffed0000fff30011000400110004fffcfffcffd40011ffea0010000bffd40001fffd0000001500040002ffb30013ffe2ffe3ffffffef0002ffff0003fffdffe90000000efff8fffefff9ffebfff6fffeffeaffd4ff8afffe,
4f0001fff20006002b0009ffdf000affe0002200270025ffed001400070000ffe6fff70011001bffd30015fffd0000fff9ffe00005ffdffff200290008fff5ffc8000e0020ffd9000e0006fffd0005000e0019ffd40017ffe6000f000cfff8ffa100070011000e000200170027ffe00002fff7fff90018001c004c0011ffe9000b,
500008000700030007000cfff6001400000010fffa0016000e0001000300040007ffe6fffc000a0012fff7fffc000000000008ffe50013000a001900150007ffd80019fffc0003ffe2fffcfffa000b000affe2fff4ffd8ffda000cfff60000fff4ffe3fffdfffb00140016fff90023001f0007fffa0007ffe20000000200000000,
51fff7ffe70006ffef000d0009fffd001200050001000b002000110012fffc0012fff5fffcfff1ffe8000000240019ffd1001affa9ffeb0002fff1000cfff4ffe8fffc000efffcfffefff8000b000900060015ffe8000cfff7ffff0007fffd000affc70009fff5000c0007ffe50021fff6000efff20014ffd0fff6000cffe4fffc,
52ffe4ffe7ffeafff70000003300050007000afff3000900140000ffe2fff8000a00070000fffffffefff10000fffe001cfffcfffdfffeffff000b00000011ffddfff50001ffff0007fff8fffdfffc00070008fffbfff5000fffe60002fffe0000ffe4fffcffe8fff2ffe4ffe6fff5fff70017fff70001fffc001ffffffff70022,
53ffe4ffe4fff7fff4fff70006ffef00200011ffed0017fff6fff60000000600070009fff6fffffff5fff6ffef0000ffefffeffffe00160001fffcfffe0000ffecfffd0004fff1fff50000000e0007ffffffebffef0010fffaffd9fff0ffe3ffff0013ffed000bfffffffdfff6fff1fffe0010fff1000b0006fffcfff4000fffee,
54ffecfffbfffb00120006fff00000fffa0009ff480000ffeeffec0003fff5fffc0016fff4000e000e0000fffafffcfff4fff50002ffe3fffbffff00050015ffecfffefff8fffe000c0001fff7fffd001efffdfff60005000c00000009fff5000b0002ffb1000bffeeffbc0001ffe6000f000d002b0009000d000c00170015fff4,
55fffcfff000080004ffefffebfffeffd5fff90001fff4fffc0005000100000001fffefffcfffd0004000a00040003fff4ffcafff000090016ffe800040015ffe100020023000000170004ffee0008fffffff10000fff1fff900040004000600160007ffcdffe40002ffd0fff4001100230004fff800000005ffe1fffefff30000,
560000fffbffe3fff500210004fffbffd5ffe5ffde0015fff8fff90015fff70006000e000200040000ffecfffaffe8fff9ffd70002fff1fffd001b0003fff5ffe3fffafff9fff100020017001f000000030026ffef0004fff9000afffb001a00160001fffdfff40008fff3ffef000afff8000d000200050004ffe3fff5ffdc0008,
57fff0000afff9ffe4ffe70027fffc0004fff7ffec0000fff5fff7fffd0004fff7ffeffff6fff80002fff8fffafff5fffbffebfff1001200060003fff9fffffff0fff8000100130012001affcc00000010ffdbffdbfffd00230012000f000f0013ffefffeefff3fffc000d0013fff5ffcc0009fffc0016000c000cfffdffffffdf,
580000fff80001fffc001fffe6002700210008000bffebfff30001fff60005ffe1ffef0003ffed00200004fff80014fff8ffd2fff9001ffff100140025ffccffddffc00015ffec0012000dfff7fffa000e0006000e0014ffdcfffbfffdfffc0016fff4001200150013000f0023fffcfff10003000600060016fffffff7000afffb,
590014ffeb0042001200130008ffde001000090044001afffeffa5ffe5ffe8fff7ffcf0007fff6fff4000e000d00040009002d000dffee0002ffefffba0037ffd3ffc50014ffe3ffb8fffc00060013001600130025fff8ffe7ffe00023ffecfffefffb002a00170000001500070005000afffcfff40002fff60019ffe700160025,
5a00200011ff9dfff10010000c000dffe8000f00090005000efffbffe2fff60003ffd800050008ffeafffaffba00000023ffe3ffd7fff90013001a000fffe900060007002cffd9fff00003ffff002c002bffeb00000010002400150000000fffe00019fff8fff8ffe2ff6f00280020ffd1000ffffcfff80014ffd3ffc4ffe90012,
5bfff9000a0014ffe5ffe700110010ffeb000bfff0000e000b0008ffe0000b0011ffe400060024fff200090006fff1000f000affea000f0000002dfff9000a0005ffe3fffdfff8fff7fffb00000040002affffffe0000bffe600140010000fffe700110003001f000c001bfff3000efff70007fff5fffcffd9fffeffdb00050004,
5cfffa000f00030024fff6fff6fff0000c0007fff9fff8000d000fffe900010011ffff0002fff2fffbfff7000fffefffed0015ff60000dfffcfff30008ffe40002ffff00200003ffcc0006fff90007000bfffcfff4fff400000000000200080000ffe9ffd000290017ffea0008ffeeffe5fffdfff9000dfff2ffddffe9fffeffef,
5dffe80008001b00200004ffed0008ffe90010000c0003001ffffa001effed0014fffbfff40006000affef00150013fffa0002fffb00060018fffdfffdffec0005ffe20007fff600030000fffd000b002affd4fff30006ffc6fffbfffcfff70002ffedffd5ffd30001000bffd80011ffed000ffffafffc0009ffffffe2fffb0002,
5effd70003fff9ffdbfffcffe30006fff30004000c00160004000d00080006000f0008fff6000cffe5ffe500000011ffde0006fffafff2fff8fff4fffc000c0005001f0018fffcfffb0001fffcfffc0018001e0016fffb000bffa70009ffe9fffaffd6ffc1fff0001a0003ffea0006fff40008fff300060007001fffee0008ffe9,
5fff60fff7ffe900010008000f00020012fffefff2fffcfff9ffe10008fff000150020fff90021fffeffebfff1ffe4fffc0009fffcfffb0003fff2ffd9000700020006002bfffafff200020001000600050008ffe80002ffc6fffcfff2fffc000f0024ffa0fff6000d0049ffde001400100002fff9fff30008000a002000050003,
60fff5000afff9fff7ffe90017ffecfffbffe6fff20006fffcffee000a0010000a000500030016ffd0fff10004000c0023ffeefff10000fff8fff9ffd6fffe0001ffe90016fff1ffe60002fff8ffff0014ffedffe10001fff30000000700180008000cfffb000b0011ffe3fff7ffeeffecfffe002700110004fff4fff3fff20016,
61fff30000002b0012000bfff7ffff0004ffed00040007fff0ffe8fff30005000cfff0fffdfff9000effffffecffe8fffbffcdfffa00000002001cffe3fff20001ffe300050014ffea00150011001e001dfff20005ffd4fff7fff9fff800200013fff5000b002affeb0002ffedfff0fff8000ffffafffb00170005ffebfffe000d,
62fff9000b000600140006fff2ffecffeb0002fffe0003ffef000a0017fff3ffe8fffc00000011fffcfff6ffdd002000020011fffb0003fff60011fff9fffcfffcfff00019ffe400140019fffa00080012fff9fffdffb50004fff1ffe7000c0017ffe50024ffdd0008fff600130009ffe60003fff500040015fffbffe60001ffb6,
630000001f000affeafffffff4fffd0019ffed0019ffecfffefff3fff00007fff1fff6fffb001cfffbfff00006ffebfff50006fff800030005001efffe0019fffe003d0004ffed00000015ffdc0011000e002e00350000fff6ffedfff2000a0018ffe50034fffa0015fffe000afffcfff3fffdffde00010000000700060014001f,
640000ffdaffee0003000b0012ffaa00000047001d00030018ffe6000f00000014ffb500080013fff40003ffe6fff7ffbd0020ffe6002cffe4fff4ff9bfffbfff6002afffc0006ffad00000017003000120008ffc100400037001bffe9ffd5001c000f0030fff50000001000130013fffa00040004ffe900160017ffbbfff60016,
650010ffedfff90008ffb8fff80005fff7fffcff73001bfff8000dffe30009fffaffef0015ffeeffc300010008ff8fffbcfff60013001500010000fffa003dfff4ffe100170002001e0000fff2002afff5000b0004fffd001dffeb001c0006ffe3ffdfffde001b000e001600090017fffb0004001800160018fff4fffefffd0003,
66000d002400110011fff700060002ffe7000bffd6fff40007fff6ffe90000fffefffc000affe4fff9fff4fff80017000a001a0031001e0010fffefffdfffdffedffeb000600190025fff80010000d00070026fff1ffebffdefff2000b0018001000110000fff8001cffe4ff88fff80006ffff00000004fffdffed000efffb0017,
67fff9ffe9000bffe60006fff80000fff500090003ffed00060015ffd900020004ffed001c0005fff9fff8ffd7fffa000f0025fff700140015ffc600000000fffe002a00200002fff6fffd000000230008ffeffff70000000c0017000e000300200001ffe7ffe20010000d00010000fffa000900050004ffecfffe0008fff6fffb,
68fffa001b0010fffc0004ffffffecfffe0018000700060000000600100002fff6fff8fff4ffe8001cfff9ffdaffff00090000001dffdb0000ffaa0008ffeefff4ffe600050005ffc9fffaffbd00170008fffb000b000f00070019fffbffe600050017ffd40005001efffdffe80016ffddfffdfff8001a000a0003000d00090023,
69ffbe0001001bfffb001000040003ffeb00140002000b000cffe8001afffc0016ffe30006ffe800000000ffd6ffec0015000afff80009000cff7cfff20012fff3ffed000bfff3ffebfff3ffe600070007fff6ffcbffd9fff7ffff0000ffee000c0009ffd100110011000effefffe600070004fff800200000fffdfff0ffe70005,
6aff99001f000a0005ffeffff9fffe0001fffefff8fffe0004ffe500020001001e0008002700090054000ffff6fffdffdf000fffedfff7fff1ffd3fffe0008fff10000fffffffd00240000002500130027fffb0005ffe50042fff5ffff000d00140017ff970017002a0009fff00022ffd00006fff70027000a001b0005ffe0fff4,
6b0001fffefff0000b00140004fff7ffe4fff70002000dffebfffbfff8ffff0013ffe600060007000cfff2fff800120016fffbffd500000013ffcfffddfffafffbfffd001e002c0007fffc0009000bfffb002d0000ffedffe9fff1fff200110015fffdffdbffef000800040003fffbfffefffe000100130017ffe2fff700230003,
6cfffb000dfff2fffeffeafff6fffcfff9fff900120019fff80019fff1fffe000cfff400040000fffeffdf000bfffdffebffdf0009003c00000005fff1ffeefff2001e000dfff9fffc000800230008fffe000200140004fff70007fffb00030013fff80034ffef0021ffdd0000fff7ffe1ffff00130013fffb0005fffefff3ffff,
6dfff8ffe6fffafff30006000affed001b00050000fff8000afff0fff7fffaffdbffea0005000afff5ffebffebfff5000bfff3ffc3ffe1fffa00050000ffda0002fff900040007ffed000bffc00003001600000011002b000dfff1000c0005001dfff4000dfff3000d001200100004ffe9000d0004001f0005000e0015fffeffe3,
6e0006fff2001cfff7fff5000cfff90019fff4fff900030000fffc001afff6fff3ffee0000fff40000fff8004400170001ffd90008ffd2fffb00130000fff8ffff000b000f0000fff8000d00160023000fffeafff8ffe4fff90004001e0002001d0011000c000a000600120007000e00240008fffb0003fff100020004001efffa,
6fffff000100190000001cffa5fffe0017fffc0011000d0010000b0009000e000e000b0002ffdaffd6ffdb0049ffec0001fff5fff0fff3ffef0007ffe7fffeffe20014fff2ffeb00100002ffec000b000500130018001dfff5000efff0fff400060003fffd00200009003c000b001d000c0004ffe7fffefffa000a000f0014001c,
70001cfff3ffedffdefff3ffdbffedfff70001fff6ffb1fffbfff2002dfff9fff9fff90032ff98fff7fff4fff70009006600000008fffa002200200019ffc60011001c000b0010ffcaffe2fff6001a0015fff10005000affeb0008001d0028fffb001d001200120005ffdaff81fff20017000afff2fff900000015ffe400040003,
71001e00090000fff4002c0022fffb00060016ffd20000ffe6fff500010008fffafff2000bfffcffe000090002fffaffb1ffea0045ffd000020018001f0016ffe90008ffe500060004ffff00080016004b000000180005ff72002800130019001d00060006000e00160010ffcaffea000f0010fffeffebfffbffc3ffd30000ffd1,
720005fffd000f000000000009fffafffc0026ffbd0000ffed0007fff000010005ffe9ffeeffc8fff6fff400010002004a0009ffdefff300600001001c000000010005002a00090022fffdffdd00080021fffa000d0000fff6002cfff40017001dfff60006fff2ffea0003ffce0029fff80007001f000afff8ffe7001a00000007,
73000500030002fff10017ffee00170011fff30008000dffee0041ffd3fff60009ffe3fffd00150005ffcc0022ffe70001fffd001c000cffffffef002fffd9fff90014fffc000400270001ffed0011003e001400280007ffe70008000000040012fff400130019ffe10006ffdd0015ffea0005000bffedfffd001b0035fff60004,
74fff20038ffe40025ffef0000ffecfff10003fff30004fffbfff6ffebffe3fff0ffd10003ffe4ffb00001ffda000700110008ffeb0023fff20003000bfff4ffeb0000000b00020007fffaffe700020012fffcfff4000c001c0025000affec000cffeeffe8ffe0fff6000fffdb00050014ffffffee0009fff80028ffed0003ffed,
75ffe0000bffed001affd9fff10016001bffeffff70015ffff0022ffef0049ffff0059ff43001f00070012ffce0020fffc0036ff9a000cffe9001cfffaffc7fff1ffdf00220006ffdc0013fff10013001f00090016ffc90037fff90036fff2fffcffd0ff82ffe1fff8ffec0032001b0003000fff91ffe00019ffe9002effc0ffe8,
76ffe40019ffed0012002a0009001a00060000000b0001ffee000cfff3ffea0003ffe400100005ffb4ffeffffdffeefff9fff4ffceffd8ffd7fffe0019ffefffecfff20045ffddffd80004001affed00190006000f001efff400150022ffe90000000700060006000cffef000d000effe60004ffedfffcfff9ffe900190009fffc,
77ffff001d001d000afff20004000b002bffe3000b000300090020001800090001ffda000c00070000ffc90008ffcb00250011ffd1ffde004d0015ffdbffecfffe0010001b00130016000bffee001e0025ffd7fff8fff9fff8ffb40011ffe4fff5fff40022fffc0012ffe7fff4000cffca0001ffecffe3001200140022ffe9000a,
78002afff40003ffc6fff1000a00080015000efffb000800000017ffba000a0020ffdb00030008ffc7ffd5ffe7fffd0018002effbb0014ffe2fffeffe6ffdb0008ffedfffa00100000fffffff10010001800200002002bffd1ffed0008ffecfffbfff000160022fff30017001b000e0033ffeeff7b0005000b00140029ffe3ffff,
79000f000affdb00080021000e000c002800180019ffcaffdbffe7ffd80006fff40000000cfff6ffeafffbfffd000e0000ffd800010017000b0006002d0018fff4002cfffffff2fffdffff000900210055ffeafff6ff49ffdd001cffd7ffe50014fffdffc5ffe500000008fffc001e00100008001affe6000a0020002500130002,
7a000efff300020024fff6fffb000200300005ffcd0000fffd00050000fff5002bfff6004afffffff8ffe6002e00000011ffb2ffc300040002000f000bffe9fffa000affff002f00100004002900100026ffe700470020ffe300150005ffeb00010007ff9500050007001a00040001ffff0000fff8fff20005ffeb0000ffe50003;
