; shape: 32 depth x 520 width
memory_initialization_radix = 16;
memory_initialization_vector = 
0100090712fa00020200030010f7ffe60e00f20213f5000203000b0000fbfcf5ec000dfcf60000fdfd00f80009070001fa000af7000d0006ff00ef00f1fb01f2f8,
020006f2fa0f00020000f400fc03f7fc020008faf90a0004f900f300f5fff8f2030004000bfb00eeda000000191bfbfce6000def0300000cff00f400130b060319,
0300fcf1070d000d070003001102fce9f200f7000bf500050f000900f4fc0d0bfd00f10d0ef4000b05000900fefa06ff0100e81004090001f1000f001c18ea12e5,
0400060afe0e00fdec00fa00181bff01e8000910fa0a00060100f70009060200ee000600f50e000c0000f000f70be5ecfc00090005fc00fafc00050017fffdef11,
0500021101f000eded0000000804070d0500effb00f40012fc000e00fbf40600f600f40209e300f70a001000fb0c07fbf400f60301f900fce6000200f6f8000504,
0600f5f4f1ff00ffec000f00efef2000e300f3040bfc00f903000600fce805fd07000de4f20b00040200f100ecf2f8f103000afdf902000b0400f3000112faf90f,
0700ecea0afa0010fe0015000d07f1070000ea030f000000fd00120009fdfdfcfb0007edfb100008ff00f100f7ff00f70400f4080802000300000500f4e70816e8,
0800f40809f4000604000a000a030005ee00f3f80cf7000aff000b00ffff00fd0700080df40a0000fd00fa000307fc011300eef0f3ff0011f0001200eeee26f1f4,
09000efdf90000070500ef00edf8fcfd00000a03fe0000feff00f6000b0deffb030004e5f3130000ef00fb00181bfe00df000600f10500fd0200f000fe0404ff0d,
0a000f11fe1b00f7fa00ff00ff00f9f7f900f3ff0bee00050700030000fe000c00000a09f9fb000bfd00f4000e0de5f600000a0cfa020005fd00f4000d0de8f803,
0b000f04f30c00080400ee00ecfa01f3dc000afdee0000fffb00f50012fe0bfb1200100ff7fb00ff0700f300f90003000700f1080af90004e10008000d13fe03f6,
0c001015f6060009fb00f7000dfe0a00fc0006db021300150000ee00edfdfcecfb00f511f80f00f8ce0000001e18ff100500f60611f50001080015001000f5ebeb,
0d000907f6ff00edf300f6000108fffefe00101000000006ff00fd0007fffcfa0d000c05fa0300010900ed00f3f7fef8fb0009f70009000def0000000a0ef5f600,
0e00f3090bf8000304000700fbf5fb09f400eb1010f400100b000d0000fffe020000080701170017f100ec00eff507ebf9000afbf3fc000aff00f800071a03030d,
0f001af1031000f1ff00fd00f909fdff1e0012f3fa0100e3de00fa001a19fe020a000f0400ff0000fa00f600090aee000500100906fe000cf90002000ffff0f303,
1000060af6060000f500f5000b0a03fde200f9000eff001009000400f5fc09fefb00fb09fc0000fcf7000500161bf6031900f2fd09f6000407000900fdf70000f5,
110004e8f60c000cfc000300e2e0fe1305000cf0ea100002fd00f10000fa08fffb00fdfe08f800060a00090001f70a09fd00f8ff10030004fe000800f5f1f4f300,
1200f6f70b00000700000a00faf2f4000000f6f80d00000100000a00f6eaf1fa0000fceae90900eefe000900faf50d180000f7050c06000706000500fff813160b,
1300030604070007ed00fc00e9e30414f4000908f9120007fc00ef000e0702eff6000afef20b0003fe00ee0002ff03fcf50000fcf50a00f5ef00f5000a041d21fe,
1400fb0d0bfe00f819000a00fb05091bfa00f9fc05fc00fe11000700fff80010fc00f3ef0df500fde0000500ecdb07f8050003f2f50000010b000600e7ef091bfb,
1500faebf80c00fb14000400111e1609f50004fdf11a0003fd00ee000c07fbf801000c00eb0900f30100ed0002fc14f4070000f6fa0300f01000f6000e1b07f5f5,
160013efe3f100010700f0001401f1f4fe0008fbf507000d0200f100000d00f9f300f9fe10f50005fa000b00f7e9e8ec0500f6ff06f900fd08000900f6ec0000fa,
170011e0ea0200f0fa00f40007020c0a00000cefed0d0003ee00f0000205070a1000f60310000004fa000800f9e9f5fb03000a010105000e0b00ef001b12fef918,
18000600eb0c00fcfd00f50003040808f1000afeef0c0000fd00f30005fb05fffb00fd030af3000210000a00fbfa0008ff0019f8eff500020500ea0011f2e9f501,
1900f7ff04f900020a000900f8f3f2ecfb00f40205fe00f903000d00f6fe0f080000f4fa07f300ecef000c00fdf8051f0700f50109f400030a000700fef10100e4,
1a0000d118f7001302000b00f70103ff05000514f20900fdf800f200080606fd0d00f1fdf7fe00f20d000b00f1fa0e05fa00f3f600fd00f903000c00f2ff0f07fa,
1b00f10210f700000e000900f5f3efef0000f40c02f2000008000b00fbfd0114fb00f70801f300020f000a00fbfa00fbf80000f8f50e00ebfc00f500050e1011f7,
1c00f30608f800ef0f000b00fbf108140c00f5fd1402000bf7000200f0e4f7ee0700f6fbfcfd00fce50004000cfd1c21f80012e0f10c00f9e900f300eff4140eff,
1d00f8ef02ea000208000800f8040402e80000fcfff300f808000c00edec010afa00f40007fd000704000900f8e9f1f50200fcfc0d0300fced000900f8f5fa0aff,
1e000800ef0800f70200f7001105fdfb0d0008f6ed1f0002f300ec0004f70600f700f401170a001207000400f3e4e3f2ec00f40201fe00f405000a0000fd0e05f8,
1f000004180100fc0b001600f8fe05f6e000f3e901f500f70a001400fe070e180f00f6fa05fa00f50d000e00f7030e050300fbdbfb0b00fe02000600ece2051301,
2000f40807f800040a000800fcf6010bf5000411f70f00020100f40003f8f9f60b00fe04fafb00f905000300fb040e1efa000b0cf4040003f900f100000503fd09;
