; shape: 4 depth x 520 width
memory_initialization_radix = 16;
memory_initialization_vector = 
0100000000000000000000000000000000ff1000000000002200fffa0001eff40000090000000000170701f800fdeefc00000e0000000000eef90000001e14ea00,
020001000000000015fc000c00fbf2050000000000000000000000000000000000000d0000000000f409fffa00f807000000f20000000000f10400f900f709f800,
030000000000000000000000000000000000e00000000000ecf2000200011d0f000000000000000000000000000000000000120000000000251bfe2700fee30d00,
0400fa00000000ff09ed000a0005f9e90000070000000000f4f3000100150d000000ef0000000000e3fa00f200102edd00000100000000000fe800030000f7eb00;
