; shape: 122 depth x 2056 width
memory_initialization_radix = 16;
memory_initialization_vector = 
01ffc40015002affd5ffe9fffbfffbffd4ffe5007dffcbffebffdf0031fff0fffefff3ffe0ffadffc1ffd5ffd6ffe6ffc5ffaafff6ffefffecffdeffa7ffdf0043ffd1ffccffc7ffe9fffdffdbfff3ffc2fff8ffedffe6ffd0ffcbffd8ffd80038ffc1ffbd00020000ffcdffccfff00015ffc1ffceffc4ffedffc7ffa6ffc4ffcd0001ffc5fff6fff4ffcaffd4fff2004b0000fff4ffe3ffccffb8fff5ffd4ffbdffeeffd3fff70008ffecffdfffdfffdc00020001ffffffdaffc6ffecffb2ffa3ffd2fff7ffc0ffa1fff9ffe5ffbdffca0002004fffadffbefff2ffd8ffeb0019ffe5ffecffe0fff5fff4ffedffe6ffec000efffbfff0ff9dffaaffeeffe90023,
02fff400030001fff4ffee0007ffedfffbfff9fffb000500130027002affceffe9001bfff2001b001fffe8ffc6ffdefff900100007001e0014ffff00290001fff6fff4002dffd4ffe70037fff3ffd9ffb60035001affdb0005ffda0011ffe6ffe90000fff5000a0010000b00270029fffcfffb004000000000fff3fff3ffefffa6fff7ffcc000b0003ffedfffaffe0000ffff50001ffe60012fffcffe9000b000b00070027ff97fff00006fffe000affe50001ffee0000001a002affe70028002cfff20015fffaffee0004ffff002b0012003affee0000ffe20003fff6ffd0000cffd9ff9cffda0012fffc000e001d0016001fffe4002a0031003dfffa0059fffb,
030000ffaa00060000001affefffd3000affd900030015ffd400140019000300010001fff50011ffdcffda00240032ffec000c0033000a003c000f000d0008ffec000eff8f000fffefffecfffdfffb00060016fff800020034001bffb2ff61ffe5ffe0fff3000d0011002e00120017000bffecffcf0000fff7000c0042fffb0027fffc0001fffa0000ffe400040030ffe6fff60002fff7ffd80015001dffc9001ffff0fff8ffb8fff8ff9cfff7ffb6fffc0028ffe00000ffcb0039005b00130007ffe80005ffe20009ffe9fff7ffc8ffe0002afff4000cfffcfffb0001000bfff50009ff72ffcbfff3fffefff1fffd002dfffb00300015002300120001fff40003,
04ffefffd400130009ffdbffe7ffcd00000005fffcffff001e0011001c000efff80012002bfffb002effe900170004fff00007fffcffba00190007fffb002dff8afffc001a001d0000ffcd0010fff6ffd9002100330014000dffd40027ffe70000fff9005a00440021000f0015ffcdffbffffd0009fff8ffe5fff900290007000affedffcf000e001fffe3000a0008000efff6fff0ffee0011fff1002affe5000700070029fff9fff700190012ffe40002fffeffcdffff0000ffeffffcffe3ffecff7e00170013fff7ffdafff9003200120036fff6fff0fff7001d0008fff30006ffe1ffe10027000cffe40025fff0fffcffecffc8001dffd9fff80006ff59fffe,
05fff9fffa00570004001a0000ffebfff3001c00050025ffd1fff5001cffed0009ffe90014ffff001600270012ffec000f0000ffcfffc6ffdd00020014ffc2ffd300040000ffebfffcffecffd0fff7ffff00460019001f0009ffd9ffee00000006ffe50010000800030006ffe3ffeaffe200020005ffe30025fff20027ffff001c0003000b0001000100120019ffe4ffeb0021fffdfff90015fffaffe9ff980013fff0ffd7ffe30006000a000affedfff20003fff50000ff95fff7000c0005001ffff90014ffcd0007fff00015000600100045ffd3000a0019fff6fff5ffe80010ffe6ffddfffcfffbffdaffd2001c000ffffa00050012ffe200080011001f001e,
060002fff7fff4ffe5fffa0013ffebffeb0007fff4ffd70008ffea0014000800160000000f00030007001bffeaffd50023000cffee0020ffd1ffeefff4ffbffff7ff6800060009ffde00260004fff2fffd00000051000cfff50030001afff3ffeb0000ffdafff900170010ffcdffefffed0027fffd00150000000a0013fff50025ffebffeb00120032000b000affd4ffe1ffe5000dfffbfff1000f0014ffcb0021ffef0009fffeffe900420015ffe400130051ffd20000ffd80021000affff0007ffc90006ffee000affe8ff960010ffbc00180000fff4fff7fff9fff5000f0003ffeb000e0003fff6fff5000e0002ffe600110029000c0020ffe6001c000b000f,
07ffbcfff8ffdeffefffbe0024000fffe8ffed0013000effff001b00000003fff4ffef002bfff7ffdfffe10006ffdc000f000a002a0005ffb300110013fff100090012003fffc4ffe80032ffe40000000a0015002d0004001b00000021ffedfffe004b000b00280016ffc6ffdefff90007000c0014000bffe40008002600060010000bffd7ffb5002b00400020003afffb0016fffe0017ffff0004fff8000c00090012ffe8ffe9ffe7ffbbffe9ffd600380049008b0000ffde000effe5ffe60005fff800000007ff9bffa0fffefffc002d005effeeffd8fff20048000cffecfff7001bffebffe4ffee00140000fffd0003ff68ffc6ffe8ffebffed0011004c0015,
08ffe6ff7b0001ffb4fffdfffcffc6fff300150001ffef0014ffe10015fff6fff500000057ffec00190012ffea0021fffe0012001afff0ffdf000b000a0014ffdcfffa000effed0006ffd2fff10000fff6fffc0002fffa001c000effbcffe6ffecfffcfff1ffbb002a0008002e00030001fff5fff2ffc70003ffddfff00000ffe3ffe8ffe80020001dfff80003ffeafff8ffeffff40033ffffffedfff4ffea000cffdf000effed001effd00005fff4ffef000afffc0000fff0ffc7003800240013ffe9ffef0000fffb0000fffc0002ffff003d00190000ffd2ffd50015fff100020018fffb000b000efffb0002ffffffe60021000ffff90011ffea00120018ffff,
090014ff97fff7fffd0001002affd5fff900130004ffe8fff2fff20022fffb0006ffff003affe60010ffef0020fff1fff1fffbffe70021ffd7fffffffdfff6ffba0050fffdffebffd9ffb9ffeffffeffe20034fff6ffecffbcffd6ffe4ffff0003fff00013000b001d0007fff1ffacffe4ffe9001f001b0000fff9fffe00080006fffd0000ffec0008000500070012ffe5fff10024ffe100140014002eff7a001500090000ffecffe00056001efff1ffd30002fffc0000fffbffe3002600140008ffee000dffebffffffea001cff8f00230022fff9ffd3ffc4001e004d000cfff3fff50017000d000b0011ffffff9effe4ffe6ffdb002c0002fff9fff40006ffe9,
0afff7ffd80058fff2002efff5ffebfff70016fff80003ffe2ffe20024fffc0008fff80011000cffd70016ff4ffffbfff70000ff9bfffa001ffff60002fffaffeaffe0ffe100020000fff9ffd5fff0001c0069ff8d0002ffb0001a001d0034fffdffeb001cffe800320001ffcdffd9ffd0000c000fffeeffdeffd7ffea0003002e0011000500020012ffbc000ffff2000900180001fff0001f000cfff4ffc8000b00050000000d000afff40009ffe50041002c00050000ffe7ffe3fff5000a00230012002dfff5000fff7500150020fffffffaffda0037ff7e000bffe6000b0000fff0001a00000005ffddffd4000effc2fff9ffba000d00000008000efff8ffff,
0b001bffbcfff0fff6ffebfff200070003000cfff3ffff00300000002200090000000600210009fff3ffe00016ffe60019000a0005ffff0024001e0016ffb4fffd0008ffffffe00000000f00100020ffe0001bffdd000c0045fff7ffebffaf001c0013ffecfff500330024ffe1fffe000bffe0fff300170003000dfff400030028ffecfff70019000f00050031fff00000ffdd0000000cffcfffe00010000f0002ffeeffe9ffef0015005b0014fff1ffc50029ffe6ffff0011ffebfff8002900030029ffb80041001f0019ff940016fffe0013fffe0000fffc0007ffd5ffc30009ffc9fff30037ffdefffe0023fffbffbe0000ffc9fffbfffd0000000600140005,
0c0007ffffffc80025ff3a0022ffd5002a0008fffa00300013fffb002bfffc002d00040005001cffe9001fffcd00000040ffec0002ffe300130019000fffb9ffe9ffe1005300130025fffbffe00027ffef0040ffbcfff400020016000affe0001effe5002200160010fff0ffe6ff840000000efff60029fff1ffe3000700210042001ffff60012ffe8003e0010ffdaffed002affed00000018fff40003fffc000c000d0004000f0005ffbd0037002a0014000d00300000fff6ffe6000f0028fff5000e0021ffa10006ffe4ffe0ffeb0008000afff5fffeffe90016000dffed000c002e00070022002f003fffec0027fff7001afff1001c0015fff1000900310016,
0d000dffd20002ffcc0010001f00270005002c00030023000efff80028ffda001f0002ffff0023000400480022ffd80010000900290024000effbd0015000e0009fff5ffdb000a00240008ffc8ffe7000400280007fffb0019ffe6003dffe7ffde00030005ffd8fff4ffe90001ffe7ffe2000fffd80022ffeb0016ffec0018fffcffffffe50000fffdffcfffbffff2ffd4fffe0003001bffb400080033ffd9ffe6001dfffc00080001ffcafffb000cffeb004900150000fffc0010ffedffd10012fff6fffc0023000effe1ffeaff88fff300330005fff4000a0034ffde002dffbe0000ffea0012ffe3001bffeb000effebfffe0000fffb0009001bfff40001fff4,
0efff0fff80003ffd9fff7ffe00044000affdf0001ffd4001100000009001e000bffe900000021000e0034ffe2ffebffd400000000fff7001700190023000400000011ffe40002ffdefffd0011fff5003b0049ffe1ffd7fff1000f0022000dfff2fffefffd00020015fff3ffc5fff0000b000ffff9fff10037000f001500090011000a0007001a0021fffdffdaffbd0002fff1ffff000e001dfffaffeefff0fff300040018002c0008ffe00004ffe4ffd8001100010000ffeaffedffe3ffe2fff7ffe50008ffa4fff10014fff90027ffec0016ffed000cfff80002001afffb0019fff0fff20024ffeffffaffbefffa0039fffd002f000200020015ffe4000ffff3,
0f000900080000000000080000fff5ff79003bfffcffee001ffff50016000f0004fffa000400250022ffdfffe8fffe004c0000ffedfffaffe5000dfff5ff49ffec000d000f0006000dffee0030fff2ffd60026ffafffebfff7ffd50020fffb00260000fff9fff6ffd90026ffdf0004ffecffcd0008ffe3001b002300140006ff95ffec00230005001d0011ffef00060001ffcb002a0010ffdb0000001c0001fffcfffa0000fff4002e00000026ffe3ffee0029ffd50000ffd3ffcfffe0ffe70005fff5ffe4ff7bfff0ffac0004ffde000f00040001fff2ffd8004c00250011ffdf0014ffc9fffefff3ffec0000ffef0005fffe0017ffd900310007000ffff7ffd8,
10fff5fff9fff4fffbfffa0003fff3fffa000cfffefff2fff9ffeefffbfffefffc002a002000010010ffda001b0020ffe70000fff3ffe4ffd30000000bffe500060000ffc9ffd2fff7ffbe001bfffbffc30026ffcf0012000a002bfff7fffa000e000efffafffeffa5fffa0002ffddffec000d000effeeffc7ffe40025000cffeafff20028ffd9fff900110026ffecffea0017ffe400080026fff3ffbf001cfff3ffef0016000e00280000ffe7fff6ffde0007ffd80000000c0001ffebfff600000004ffff0041ffe6001a000dffeeffeffffcfff7fff8fff200050017002d0008001d0003ffc3000700200020000000160006ffe9fffe000b001a001c00310000,
11fffe0014ffe90021fff200000003ffe4fff0fff80000fffaffdbfffa00060009ffb4001d000d0025fffaffe50011ffe70009ffc8000fffc7ffeb0004fffffffafff7ffc7ffd2000c000dffeb000500000005fff80006ffe7ffee0018000bfffb000b0000fff5fff0fff8fff7ff66000a000ffff3fffcffc7fffb001000090008001100300000ffe90002ffed002dfff6ffd90002000fffed001000300025000cffee000dfffe000bfff3ffe600090008000afff7ffffffccfffeffaa00080001ffe90011001c0045ffd50006ffd00004001fffef00120004ffaf000a0024fff5fff600080000002affc9fff3000000330008fff8fff9ffd40010000c000cfffe,
1200150005ffe7000f001e000b00140023000e00060000ffe10002ffec0003ffe8002100110007ffffffd5fff6ffe6ffe4fff40011fff9ffc0fff1000b00100018ffd3ffdf0016001100460013fff400130014ff790003000affe90032ffd000150028ffe70006ffe50007fff1fffefffa0003ffce0020fff7fff7fffefff4001bff910027ffd1001fffc50000ffd3ffe9ffed0015ffd9fff4ffe00011000a00000029000d0000002cffe6ffd5ffeefff0fff9ffc90000fff40015ffd9fffe000f000e001f0029fff20017ffeeffa9fffe0000ffd0ffe90005ff59000f0009fff50005ffe90009ffc60010ffeb0043002a000effbf0008fffe002d001fffe9000d,
13fff9fff3ffe3fff2ffeaffeaffeffff9ffcf0002fff60000ffc1fff9fff8ffef00020018fffd00050002000affeefff80000ffddfffd001bffe900000002fffffffa000d002afff30014ffd800190005fff4ffeafffb0003fff10019fff90001000bffed000dffeeffddffa4ffd6ffef000bffdeffeb002bffdafffbfff9ffda002c00190015000d0000ffb5ffdefffc00070003fff800000013ffc500120014fffefff9ffff001d0006ffec0015ffe6002d000e00000003000cffeaffe70000fffffff5002e0005ffd1001afff7ffe10004fff70003fff9ff830040002ffffbfffafff4002f00110000000dfff6fffa000a000b000b0019001e001effc3ff73,
14001fffe4ffde0012ffbdfffd0022000000160000fff8fff5fff4fffffff0fff6ffecfff800080001ffe2fffd00050062fffe001b0005000cfff000040012fff4000bfffc000effeeffb6ffed0003000700120004fff6ffebfff200090000fff4000efff4000a000dffb9fff3ffef0020002100270007ffeafff9ffe9fffcffe0ffed0008ffe8fff80009ffff0002ffe5fff7fffffffe001afff40003ffed0019ffd6001a0025001fffe6000dfff4ffb8fffc0004000000080008000600050015ffccffedfff90001fffcffecffd7ffef0004fff6000c0030ff850020001ffffbffe6ffdf0010ffddffcaffe4000f001afff300340010001600010019ffd0000f,
15ffb5ffeeffe3ffce00070000fffefffd00010000000100300004001100000015000d000c0003ffebffc100000021ffeefffbffe5ffe20025000000130006ffe8000affbaffe0ffcf0019ffc90005000400230005ffdeffd3fff90000000dffef00090007ffdb0019ffebffbd0016ffccffe7ffe2ffdcfff4ffa40007fff70027ffe1ffe800010009001e0009ffef00030018004b001afffaffe6fffaffcc00070017fffc00250020ffebffddffe1ffed0026000e0000fff50015ffcb0006002fffe0ffdbffd0ffebfffffffcfff2000a000effef0012ffddffe60002fffeffae001dfffaffcc0022ffe90039ffe0ffde000d0001000c00250018000b00150002,
160016ffeafffefffb0002001f002bffecffef0005fffafff9fff90010fff9000000000019000100150007ffdffff7ffd4fff4000b0017003d000d001ffffbfff80011fff2ffefffeeffffffdfffdefff70035fffa0006ffcefff000030032ffff000afff80037fff2002fffff0011000dfff6fffb0015fff2002bfff90000fff60002fffd001c000a002300240013fffeffdb0007ffe30000001300220009fff4ffdc00120038fffbfffbffbffff100170024ffee0000fff30005fff2003400140011fffdfff4fff7000a000bffe400160017ffe0001efffc000f0018001900170033ffed000f000dfffdffc3ffd3ff9bfffa0034005400140000fffbff950008,
17ff94fff4ffefffc2002c000e004ffffd000dfff40008ffc6ffe8002ffff5000000100014000d000fffe1002cfffcff90fffa000d001f0032000b003a001efffa0017ffcf0007fffcfffdffdf001b00180032ffc4fff9fffa00090008002f00090000ffc1fff30040ffe40011ffa9ffe9005100080002ffff00010000fffd0042ffee00210002ffeffff90006ffcd000b0004fff1ffcffff0fff4002effcd000b001a001a002b00220011fffafff0ffc4001a000b0000fff0ffe7000e003300200020ffefffd40005ffe00026ffbf00190012fffdffd8ffebffff00000003ffedfff0fff90007ffc70001ffd8ffe0000bfffeffee001affed000affff0003fffc,
18ffd1ffe0ffdc000d00190027003efff7fff60003ffe0fff4ffe80013002cffeeffd7000f0003fffcffafff86ffdf002700000030fffdffe9002e0017001cfff5003d0011001b00350019fffdfff800000010fff6fffbfffdffd5000cffd2ffd70001fffdfffb00000007fffdfff9fff90023ffebff72ffe9fffc0007fff00022fffe000b00080022ffefffba002afff80012fffb000cfff3ff9300220004fffbffb8000dff80ffe9001cffdbffffffec005fffee0000001800150004ffdd0001ffc000050010fffe0000000efffcffff0010fff0ffec0004fff2001cffd4ffdb00040026ffc7ffdeff7affdd0039fffafffb002800120002000cfffcff7c0012,
19ffdaffe0fff20003ffaefff800040002fffc0002fff7ffeaffc500120032003e002200130025ffd900150016ffe6fffcffeefffcffff000affbb001a001dffeaffdefffa0001fff00001ffee0000fffd0056ff83000afff7002c0004002eff9fffff0002fff2ffe5001cffc800110001ffdafff7ffcbfff3ffed0000fff1fff80015000300380025fffd0004000e0009ffe4ffdffff9002a00030010fff7fff2ffd4ffddffd6000c0001ffd8ffb80007000f000e0000ffa500070012fff6ffff000afffb002efff7ffedffdafff70016ffeefffd0035000200210009001cfff60007ffe1ffe700190029ffdf000200220000fff30033fffbfffdfff8002cfff9,
1a000f000400040006fff50016ffe7fffd0027fff4ffebffe5000afffd0000fffdfffd0019001a0014ffe70018001fffe0fff8ffebfffdffd0ffde0025002bfff4ffe90005ffa800160000001affe5ffed002affd50001000bfff700130038ffdb0009fff60022000afffa0011001b00010000ffe5fffd000efffe001ffff8001ffff900060010ffbfffff0010fff300180006fff0000fffcb00020001fff9fff000050043ffeb000bfffd001bffe9ffde002500000000ffda0018fff30007fffe0017001dffe7ffe6ffc3000afffc00020004ffe30008ffe80012000500000035000c000000040006ffd7ffebff7f0005fff5000d0026fff6ffeffff9ffddfffd,
1b002d0017fff8ffee000f000b000affe0fff2fff0fffbffee0000fffc001f000bfff200190006000f00270002fffafff3ffffffe70037ffcbffd90026ffdffff9fff9fff1fff70009ffdd00080011000b000afffa0006ffdb000ffff50014ff90fffdffdd00240002ffc500210017ffd9001bffbdfff0ffe5ffd0002dfffcffa00006ffff000d001c0007ffe2ffd1ffeaffe9ffecffeeffe0ffedffe8fff10000001bffdfffe0000cffe90003000500030013000000000025fff8000b000fffef0005fff700010023000fffed0004fff0fffbfff8001effe9ffe0fffffffdfffeffecffdf000afff80001ffcd000600270005ffef000900050000fff7ffe20004,
1c0000ffd400090003fff4000ffffdffe6fff9ffeffff800140016ffeb00040006ffde00120005ffe40000fff7000b00000002ffedffe2ffdcffde0031fff200050000ffe50028fff4ffda002affd500250004fff90017000a000b0009fffdffd4000d0009ffefffdbfffb0006fff7fffbffbafffe000300160008000400010004fff7fff60005fffe0010fff3002efffa001bfff3ffe4ffedffeffff30013fffe001e0018fffffffeffd6001100020012fffc000200000002ffe10002fffbfffb0028ffe3fffefffbffd6fffbffabffe9000d000c0000fff0ffeb000e000bffd0ffe7ffeb00050001ffc5fff1ffe3fffbffe9ffe60016fffefffdfffbffddffe2,
1d002c0012001a0025fffa0006ffbf001e0001fffa0000ffcdfff4ffe00006fff5fff70011ffefffc5ffb20002000bfffd0000ff81fff3ff5f0022002bffefffb60007ffeaffe80002ffd60009003900040011fffd0022ffe900000026fffcffd600240036001000280009001dffd90014fff00000ffe7ffe9fff2fffe0003ffe00000ffe3fff5001cfff7001bfff100080004002c00250014fffdfff800080006ffceffb0fff90021000cffdd00340021fff7000e00000032000100190006fff10001ffeaffedffe90028ffd0ffedfff0000200000027ffe90010ffff0017ffccfffc000ffff4ffd5ffeb00110015ffeffff7ffd30018001e0012fffbffe40008,
1efffcfff00018fff0fff00021ffe600230014ffee0000fff0002dfff5fffdffcc00140001fffd0000fffefff9ffe6ffeefffeffedfff5ffdafff00023001bffebffcbfffeffff0003fff00004ffd5ffdf0014ffe80003fffc0012000dffe1ffea0009ffdf0005000bfff700200027ffd0fff0fff3ffddfff0000b0005fffcffbdfffbffec0017fff1fffc00050007fffbfff3ffeaffdffff0000400060003001b0018ffdcffca00070009ffdaffef0003002bffff0000ffe6000effdcfff9000bffd6ffc2ffed000c0000fffbffe30008fffafff60021002dffedffdcfff3ffcd000fffeafffd002affa8fffa0003ffef000bffcffffbfff600210007ffff0008,
1fffc3fffafff200090000000f00040007fffaffedfff8ffeeffe900050010ffb200080005fff5001fffdffffcffff0004000a000cffdcfffdffe1002800030004fff30005000dfff5ffeb0025fffdfff80016fffc000700040000001bffe3fffb0009ffe9000d001900020037ffffffff00230009fff7fff9ffffffe6ffee000800190008000ffffffff9ffeffff5ffdcfffbffc70006ffca0011000dffdc001afffdffbfffdefff8ffdcfff3001afff90001fffe0000fff70029000900040014fff10038ffe1fff8001100010016ffec000bfff4fff80007ffd6fffa0019ffbbffe6ffe5ffdeffce0007ffedffb8ffcbfff20012ffeeffde00200015ffd40000,
20ffef00030006ffe9001a0027ffe20000ffd3fff6fff300080026fffbfffaffd7fff8000afffd0021fffd000fffd8fff5000b00000036000200060027ffd5000f0019fff7ffe7002600020000ffe4fffa004c0020fff2fff7fffdffff00000005fffffff2ffd40013ffa4000fffe70013ffeb0010fff0fff9fffefffffffcffe3fff2000a0011fff40012fff8fff4000f0004ffd2ffecffdfffd9fff1fff20024002affefffe7000cfffafff7fffbffec0037fff90000000c001efff1ffd9002bfff2fff6ffee0001ffd7fffb00070009fff7fffb0034ffea000affdd0000ffcafff000220002fff9000cfff6fff5ffd9fffbfff8fff2ffda00120008ffe1fff7,
21fff4ffdeffffffd9001affe6000efff0fffc0000fff4000cfffa000c0005ffc7ffea0019fffd0000ffddffec0024fff10000000cffc4ffed00110020ffc5ffd2ffd9ffd7ffe9000700050000000dfffc0065ffb4ffe3fff7fff3001c000dfffa0009ffe20021000c0020fff4000ffff1ffdc000c000b0030ffd70001000b0005fffe000c0013002000110002001e00100018ffedffe5fffc0014ffe700080003ffcfffd0ffea001efff00002ffe50012000700180000000e000b002c00180025ffeafff40009fffc0019fff1ffee00050000ffdb00140005001bffe900030016ffd0ffe4002dffe3fffaffdeffdfffde0006fff600160022fffa0024fff5ffea,
220033ffffffe40027ffcb00650026ffe4000e0003ffecfffcffed001c0001ffb60007000c0015ffdaffe2fff00006fff6fffb0024001500000015001d0023ffcafffc001dffd3001c0042ffe3fff100070046ffc1ffeaffebfffcfff20013fff70000ffdfffd9000cffeb0000ffdf0001ffdc003e0008ffdeff840023ff97ffd2fff1fff7000e00040018ffe9001cfffa003affaa002e00190020ffe1ffdffff8ffae0015fff900000002ffd6ffeb00030037ffed0000002bffb8000b002b0010ffcefff80027fffefff300060013fff1001afff10021fff4ffedfff7ffdffffc0007fff1fff20010ffde0013001c0032fff4000e00050000001f0008ffc30008,
230024ffedffb5ffe700190038ffe0000bfff7fffcfff0001aff9d0027ffe5fff2ffe0000e0022ffd6ffff002f000cfffa0008001200140000fff300000005fffbffcafff6000dffe5fffdffc4000fffd70043000f0012fffe00170015ffddffe9fff9ffe8ffbd0021ffffffc5fff3ffe4002cffc3ffff0019fffefff4000cffccffff001fffe6fffbffcdffc4ffecffd2ffe4ffc10009ffb9ffe8ffeafffcfffffff2ffedfffeffef00140023ffe2ffe2004200140000ffebffeffffdfff00005fff0000e0024fff2fff8ffddffedfff30032000e00060010fff6ffcdfffb00070011ffdd00200018ffe1fff3000800040007ffdd001200210019ffd90034000d,
24ffeafffbffbc001e0014001d00060014fff7fffe0001ffc7ffcc000000190012ffed00190010000affeeffe20010002700040003ffdeffefffd90018fffb0006ffdeff97fff5fff2000f0016000200040015ffe60017fffbfffa000affe5ffe4ffed000bffeffffdffb1fff0ffe1fff6000b00170001fff5000d00130000ffd8fff900080017ffe20037ffe2fff9000a0007000cfff9001c0014001cffc8fff90044ffeb0002fffaffd5ffe8fff40015000dffec00000003ffff000e000cfff4fffffff4ffeefff6002efffd002600090034fff10032fff80007fff10007000afffbffe70007fffe000d000c000cffdefff4001f000efff1fff4ffed002bfff6,
25ffd8ffebfffefffdfff1000dffc90002ffafffea0005ffe6fff0fffbffeb001c001100100031000ffff2fff2ffecfffffff00004ffe5fff4000f0023ffb4ffef0008fffafffa00110019fffefff5fffa000cffdcfffeffedfffd0009001f00170004fffe0002ffacffc7ffef000effdbffc1fff5001100090005002cfff70003ffd6ffe0fff10022ffefffdc0002001d00320003ffed000cfffbffe7fff1fffaffe8000100310014fff6001f0001fff6002300030000ffeb00040016002ffff20015fff2ffff0026ffc00042ffe50009001f0011fffbffedffa0ffee00000007001bffe4fff60006ffe1ffd40012000f0002000d000affee0000fff7001cfff5,
26000affeb00070005ffff002b000dfff2fff8ffeffff0fffe0018ffe5ffe9fff1000b00030001fffffff8000cffed0015fff1000ffffaffed000c001effb8ffeffff700120021ffeafff10013000afffe0000ffe900000000fffefffa0000fffc0007fff2ffe2ffc1fffafff3ffef0000fffaffd2000f0011ffe4002ffffe000d00140007fff5ffeaffea00070019ffe7ffe40000000c0003ffeb001b0009fffb0000ffecfffdfff3000aff9afff00022fff0000b00000011ffeffff7000800000024ffe8fff5fff000040005ff7bfff30027fffe0005fff4fffe001cfff70027ffe3ffe700000009ffe1ffedffa5000e00020009001d00030006fff6fff5ffcb,
27001afffaffe8fff7fff60017ffe6001b0019ffe700040012000bfff000130001000f00170004ffe90015ffc4ffe80000fffcffb2ffe6ffe7000f0021002affe6ffff001dffe9ffee000bfff40021fff6fffd0001ffeefffbfffe0013fff6000e0016ffd9fff4ffd4fff1fffcfff70010ffff00060018ffeafff800000002ffe800030001fffaffddffdeffacfff2fffafff0ffdfffff000d0001ffe70009fffd0006ffef0009fff2fff2ffeb0022000b0010000100000000ffe0fffbfffffff600020002ffd5fffeffff0011ffe700040018ffe60011fff100050011fff1ffe700000000fff9fffb00000008ffc0fffafffffffc000b00000009ffe20002002e,
2800000005000000130015000f0004fff1fffcffeffff6001f0027ffe40002fff5ffed0001fff4ffccfff6fff10010ffe6ffea00190012ffb000060032fffe000afffd0013ffe8ffebffe0fffeffec000000030010fffb0007fff30007ffd60001002500230003ffc60000fffe0021ffe80010fff8fffe000d000b0005fffeffe4000effe8ffdf0008ffe4ffebfff80021ffe40009ffe7000bfff0fffefffdfffd0000ffe4000a0003fff8000cfff6ffef0001000000000019fff0fffcfff5fff7000a0000ffef0000fffb0000fff9fff1001bff80001b003600070012fff500000011001cffe4fff9ffea0000ffe6fff2fff70005000affe9000efffb0025fff6,
29ffd1fff300040011fff4000dfffdffe3ffeeffecfff3ffd2fffeffebfff1ffe70008ffebfffc002bfff00000fffeffffffebffe4000cffe9ffec00290002fffaffea0000ffe9ffe0ffffffeafffefff8ffe5fffc000a00150009fff7fffc00240011fffaffefffea0009ffe30003ffe6fffd0002fffa0002002efffefff8fff2ffefffd7fffe00040015fff1fffe0009000cffb0ffc2ffe8fffffff6001600200013001afff10021ffeaffff002100180020fff50000000900110006ffdf000efff5fff60008ffff000dfff60011ffef0027000f000ffffd00000004fff000090003fff8fff5ffdefffafff9000afff2fff9fff6000500130000001000070000,
2a0000fffcfff0fff3fff90026ffb5001a0006ffecffe2ffee0025fff000140002ffd5fffafffbfffd0000fff70013fffbfff5000cffd9000100030027ffeafff1fff2000bfff6ffcfffd9ffe8fff9000f0018ffec0010000dfff30007001dfff30007ffe90007ffe6ffea0007fffb000ffff3ffba0008fff3001afffefff7ff930007ffd5fff5ffebffd00008000fffe70022fff60010fff00001ffefffee0026ffe70000001cfff40007fff3ffeb0005fff0fff0fffffff20014ffe5000c0003ffe300030000fffcfffbfff7000f00100022fff5000dfff7fffe0019ffeaffff0001fffbffec0009002affe50000ffe5000efffa0001001e000600130010ffdc,
2b0012ffe70008ffe4fff50001ffecfffa002cffeaffebfffe0007fffc000b0012fffbfffd000000130001001fffcc0002fff50004ffc5fff5ffce0019ffeeffdc002d000d0024fff1001dffeffff000070003ffe20005001c000afff90002fff400010006ffd8000dffe1ffea0012000bfff7ffe8ffebffdffff6fffcfffc00030005fff3000400040011fff30030000effbefffc001a000300190017ffea0009fff0fff9001a00210010ffc2000effeb0008fffa000000060022ffeb000d0027fffdffdbfff9ffeaffd4fffafffefff3001200020012fffafff700180020ffd7fff3000d0012000efffdffe0ffefffe50000ffe8fff9ffee0019002b00210025,
2cffdffffdff8dfff4000c001fffb800020020000000090016ffc90000001bfffb00400000fff900170003fff4fff60008fff50042fffafffc0038002b0016000dfffdffe1fff0ffffffe6ffc6000ffff9001cffc7ffe9001dffe8001b0016fffa00030011ffcfffdefff10015000b0005fffafff0fffb0009fffcfffc002a001b0006fff40016ffdd00000025ffff000afffcfffd000700160000ffc7000600010000fffbfff80015ffca000bfff0ffe50008fff60000ffe9fffb0032fff10014ffe30017fffbfffc002effc7ffec00000030ffe90003fffe000c000e000d001dffccfff3ffdc0015fffdfff0fffefff0fff10020fffb0018fffa0015001affc3,
2d001affe1ff91ff82000c0012ffca0008ffeffffa0032005affe8001d0033ffdfffe200240027fff9001cffe20002002effedffc1000c0011ffdb0003ffdcfffaffea00090001ffe0001500100007fffd0036fffdfff4ffb7fff0ffd2ffaefff50013ffe8ffb3ffb8fff2000affccffe00000ffec00030027ffa4000affd10014fff0001f00070010ffdcffd2000c0006ffd4ffcdffedfff7ffe2fff8ffcefff7001d000100190018000c000fffd600150027000d00000010ffd5fff4ffc30001000a00360017ffeeffeb002bffe0ffbd0017001e001afff3ffe3fff900060013fff7ffffffd70000fff1ffc7ffe6000bfffcfff2ffeaffe9002f00180000fffc,
2efffd002100070010ffbc0006001dffc8fff20000ffffffe8ffb2000bff830007fffe0021000a000a00450025ffacfffcfff0fff3000e00160013001afff8fff5000e001b00170016ffb5002ffffdfffd0025000f0026ffaa0018ffbefff3fff3ffecffd7ffbc00120026ffde000affe80020001affe300100000ffddffbfffe700060003fff5002e0006ffc70026ffe4000cffd7fffefff9fffdfff90001fff2000f0031ff83ffe0ffc2ffd400100019001c000600000010ffffffcdfffb0019000b0009ffd6ffdf000100200017001f00250000ffe6fffd00050005ffd3000200290009ffc30011fff8ffef0002fff3ffab000cfff1001c001b0031ffe3fffb,
2ffffdfff100070016ffecfff1fffe0014005efffc000900130000fffcffe5002e0019000000390005000700160007fffffffe00180014fff600040011fff7ffe1ffedfff3fff700000009ffeeffe50000003effe4001e0014000f000900250025ffebfff7ffcc000dffdf001500280006fffa000d000b0000fffbfffeffff001dffe7ffdc0037ffd4ffebffec0033ffeb000dfffaffec0012fff3ffdffff40007ffe5ffff000ffffd0005ffeffff4001a0008fff70000fff4fffc002000000002fff30004fff200460029000cffd90012fffbfffa0004fff8ffe0001ffff5fff7fff50006ffb8ffc9ffdf0028ffff0000ffecfff40004fff2ffeeffd8001fffe6,
30fff8fff00006000effd1ffe0fff4fff1fffafff0000c00030009ffedffd2000f00030011002affd5ffffffec0001ffff0008fff60016ffebffdb0009fffeffe9002dfff2002b0017000a002e0001000e0002ffe100140017ffe2000b0027fffdfffd0000ffe7fff5fffefff9ffeffff60012000a001dffc9fffb001cffee0000003efffefff60001ffecffe8ffddfffaffeffff5ffe0000c0034ffce002dfffcfff60010ffdf000bfff90000ffc9001b0019000500000006ffd1000d0009ffff0019ffeb0000fff4ffb5fff9ffb900160008fffafff4fff9000e0025ffdf0017ffee001c0010ffe9ffe8fff7ffe5ffe8fff5001b0005fff700010020ffe90016,
31000efff5fffbffef0004ffefffe7000effe3ffef0000fff20003fff1ffcbffeafff2fff7fff4ffe80007ffb0000d000f0000ffedfffdfffdfff9000200210007fffbfff8fff0000dffe3fffbff6b000d000b00000000001400120001fff9000d0007ffd7fff90006000500000000fffbffe6001c0014001400050028fff8fffbffe60000fff6ffdf0009000f0007ffc3ffeb000efff3ffcaffee0003000b0000fffbffccffe3fff4fffcffc80021fff90001000600000004ffe400010020fff20008ffffffc1fff3000affe4ffc90014000fffe50008ffef0023001cfff3000bffa7ffefffea000200280019fff10007fff8fff9001f0007002afff4fffd001b,
320000000afffcfff00002ffe0fff4fff1fff7ffec0013ffedfffcfff5ffcfffe9ffff00090008fffdffee001b0005ffe8000afffdfffaffec000f000e0011ffff00030014fff3fffa0009fff70004ffd5000c0007ffce00030002fffdfff9ffef000bfffcffdc000600000006fffb0000ffff00000008ffe6fffd0004fffd00150000ffefffe4001afff30007ffeaffe60009fff30014ffe0ffe300030016000d0007001cffeafff80000fffcfff20009000bfffa00000011ffd0fffb00090003fffffffaffed00050002fff30001ffda0006fffefffa0044ffdc0007fff9ffe3000f003c000efffbffd5ffeb0009001efff3000100260006000e0000ffcfffef,
330021ffe4ffff000efff3ffd0000affeb0004ffef0013ffe0fff3fff0fff60003fff0fffeffee001f003000050005fffbfff90012ffecffe3ffe200040000ffec000d000ffffcffe700100006000d000f00080000fffeffe8fff40007001800030034fff9000bffea00190000000b0029002600040005000a00020008fffc0003fff8fff0ffecfff8ffd700060008ffe600070002ffe6001bffe20000fff30004fff2fffaffec0007000400010008000f0010000f00000015fff9fffeffd1fffcffeaffe4fffafffaffdffffb00160000000200010006fff0fffc00060001fffbfff50009fffe0015fffcffd50000fffcffe8fffb002d000000190000ffdafff8,
34ffe90001fff3ffe0000affcbfff8fff80008fff1000affe90003ffedffe3000dfff7fffdfff5fffdffeefffdffddfffc0000fff00002ffeefff6000e0000fff0fff9ffd7fff4000dfff9fffd0018ffdcfffefff0ffd2fff70016000cffe1000a000cfff60009fff6ffff00000011ffd0ffecffe90014fff500180007fff3fff6000dfff5fffbffefffe40013fffeffe3fff30001000efffefff8000700040033ffecfff3ffe20000fffb0016ffecfff70024ffe600000006000100040008000300100000fffafff80003000000110018000b000b0006ffe4ffe80015ffed0002ffdcffe60000ffe4001d0009fffeffe30005ffe0003a000f001c000afffefffa,
35ffa4fff1000d00160002ffe60004fff1fffbffefffe7000d0001fff1001b00020005fffffffaffc70003fffafff200010008fffc000afff5000900090007001bfff2000efff70010fff7fffaffd200190019ffd5ffe5000ffff900030003fff6000cfff500060010fffe0017ffe1ffddffffffd20007000c00120004ffedffc8fff7ffd2fffaffe9000bfff2fff6ffa3ffe6001afffdfffffff5ffde0014002d00090021000ffffe0005001400110009fff8fff600000000000c001bffec0009fff0fff5fff9fff90014fff70010fffd0004ffd8fff9fff8fff80009fff30018000efff90014000efffd000e0014ffe0fff7000e000dfffe000c000afff5fffd,
360005000a000400050006ffdaffcd0032ffdffff3ffcc0000003dfff400070006fff60004fffcffea00060015003cfff5000cfff9000affe7ffc80008fffffff60031fff0fff3fff90011ffdc0018ffe700080003fff10000ffef0013ffdcfff5fff9ffdaffd50015000effd6ffecfff4ffea001a000300160010fffa001ffffd0024ffe80004fff3001a0018fff0ffeeffdd000efff00000ffd9000cfff80022ffd9000f001ffff40002ffdbffdffffd0027ffe5ffffffe1000eff8f00120027ffe40002000bfff7ffae00210014000100070000ffffffed000b0021000afff8ffed00090009ffce0000fffa002f0000ffdefff8ffff000e001f001affeffff9,
37ff93ffe7000effc3fff8ffef0001ffddfffdfffa001bfff9ffcd0006000affcaffe1001300130005ffdf001a0011fffa00020004000f0008002800020016fffcffd400120035ffdffffafff5fff100160025ffc9ffbe000b000300240006ffeeffff0009fff6ffeefff0fff9001f00030011fff40000ffe3fff1fff5fff8ffc8ff90ffca0028ffd7ffb3fff7ffe0ffe8002d0011fffa00000008ffe6ffe3fffe0004fffcfffb0009fff20005001effe2fffa0007000000250009000cffc60025fff2ffcffff1fffc0019003d00030026001900040007fff60005ffefffbeffb2fff9ffebffcefffd000affff000affddffe2001e00070014fff5000dfff90019,
38fffb00450004003a0025fff80023ffcdfffffffe0003001100120013fffcffd2fff1001c001afff70050ffea000afff7fff60007ffd3001affd8fffcffdc0004ffce000f00220033ffc3ffe00009fff000130003ffd3000a000e0025001bffbcffedfff4ffd60001fff80020000dffe3fff2ffdc000afff0ffdf0001fffeffef00070003ffd70030fff7fff80003ffe90009ffee0008fffa0002001e000b0000ffee0023fffd001b0004ffe6fffeffdc0006fff60000ffe7ffefffd700110010ff87fff0002c0005fff700020027ffc600350008fff50002ffef0008ffe7000dfffcfff4fff60028000f0021ffdf0013ffa9ffe9ffea000b0020000cffe5fff0,
39001dffceffe6ffcaff960013fff2ffc2fff20008ffbf000f000d00100001ffcafff5000b0004ffd1ffddffe800050020000affe2fff8ffd1ffbc00020001ffc800100019fffb0017ffe1ffe90010fffc004a000600190026fff30006fff8fffb0004ffccff6bfff2ffef0016ffe500090018ffed0009fff10003fff600050022fff2001bffbf00180032ffebfff5ffe4fffa002c000d001500130003000200150000002affe70031ff41fffb00010014fff1ff5d0000ffddfff1ffbafff8fff0ffe8000d00020006001dffd9ffea003a0009ffedffffffb9000d000fffda00000015002dffc20005fff90022000efff00076ffc100280008fffdffe70024fff7,
3affee0068ffed002b002bffff0012ffe3fff0000efff400060003fff00018001affb100130030000ffff4ffea00110007fff4ffe9000bfffa000d0002001dfff1fffeffc30004fff30009000b00100009001affe50012ffe10014ff76ffddfffefff5001b0021000afffa00160006fff7fff7fff700240004000700200026fff5ffb4fff7000b001afff3000dffe0fffcfff80000003cffe4ffeaffe30010fff2ffc6000000150031ffb50000ffeb00000021000a00000012fffcffbb00100000000e0009ffebffec002d0014ff850019fff7ffce0032fff50006000bfffcffff001a000d0001000bffee000b0008ffd6ffc4001f00000001ffc8ffc8ffe20021,
3bfffcffcbfff1fffbffddffdd00080031fff7fff50006001b000affeafff9fff7ffe700190032000fffe70013fffdfff1fffaffe0ffeffff50013000000050038000afff5fffe000e0019ffef002100000007fff60022ffd2fffbfffd0001fff3fffdffedffed0002ffecfff9002bfff1ffe8000b000ffff70006002b00000002fff3ffddffdd0017fff10004fff9fff6fff9fff9ffe7fffffff30028fff3ffee0001ffc400130023000a002c00080014002300060000000cffffffec0011ffed0005fff8001afff4ffb7ffe0ff5dffd3fff6ffeafff4fffeffea000dff7ffff5fff4fffdffe60001ffee0016ffec00000020ffecfff2fff1fffeffe5ffc5ff83,
3cfffa0002ff6e00140026fffb000cfff0fffdfff1002500010008fff10003ffd90000fffcffff00060010000affe8fff800010004ffebfff50012fff4000dffdb00160009fff20011fffa0009fff20014fffcffe80018fffa0022fff7ffe0fffe0002fff9000f0000fffdfff7ffdc00230006000cfff9fff60008002effee000efff3ffecfff80000fff60000fffaffee0000fffffff400050031fffbfffefff5fff80001ffef002f0000ffcaffec0008fffafffb0000ffefffed00000008ffeffff20009ffeaffee0016fff9ffe8ffe5fffc001a002c0028ffeb0023fffdfffe00220002fff0fff700120005fff7fff5fffdffc70003fffbfffdffe8ffcfffed,
3dffd70007000100100001ffedffef0000fffcfff1000300300002fff6fff4ffcaffff0008fffd0027fff7ffe00005fff2fff5000b0010000000170006ffd10002ffe4001000020006fffdffe5fff90007000fffefffd4000a001c0004fff1ffa6000bfff0fff1ffe70031ffe8ffedfff0000d00060000fffd000f0008fff4ffff0006fff4ffe6ffee0007ffe9ffe9fff8fffbfffbfffcffcbfffc0000ffeffff1000100240021001c002700020023fffc0004ffff0000000effedffe2001f0000fffdfff0fff9fff9fff8ffd60006ffe8fffaffee000dfff0002d000e0006ffceffccfffc0001ffef0000ffc5ffe40002001000050019fffa0002ffe00005fff8,
3efff000030001fff4ffe0fff1001dfff9fff2ffeb0011fff2fff6ffeffff4000d0002fff8ffecffdefff20010fff70005fffc0000fffe0006000d0004ffea0000ffec001efff00007000f0005000ffff70010ffd4000bfffb0011000f0000fff50026ffffffff0002fff0000efff2fffe0015000c000e0006000dfffdffef002d00040007ffd0ffff001f00040008fffffffefffe0008000ffffbfff9fffb00010002fffe00060029fff00017ffeb0019fffeffb8ffff0000fff30018fff7fff000000002fff6fff4fffafffa001c001cfff0fff90016fff0fff700160015ffe20004ffed0000fffcfff5fffa00020001ffaeffdc0015ffed0001ffe4fff7000f,
3f0011ffd60003ffcd0009fff60016fff5ffe8ffedfff9ffb1fffefff0ffce000100050002ffeaffec001ffff3001ffffa0003fffb000dfff5fffa000800160007fff0000effef0021fff9ffebffeeffed0008fff20006001b0000ffdffff2000a000d0000fff7fff90014fffafff6ffefffebffd4000cfffb00090001fffafffeffefffea000afffafff90008fff7000700000002000c0015fff30005ffe10026fffcfffffff4002cfff0fff8fffb00060003fffdffff001ffffcffa2ffe300120001ffff000a00000000fffe000cfff70001fffa0016ffed000b0002fffb00060009fff40017fff80000fffd0005000000110003003efff30005ffe60007ffe6,
40ffcd001affe8fffefff30003ffe5fffe0004fff5fffd0003fffaffe50013000bfff0ffd9fff1fffe0000fffdffe4fffc0003fff9ffeb0001ffeffffbfffcffde002100190002001b0020fffbffc1ffdd0005ffe3ffea000c001c001effedffeefffcffc0ffe9fff20004000cffdf002affe90000fff6fffd0013fff80030ffeffff6fff0fffafffdfff2000cffecffedfffe0002ffcf0008fffe0010ffdb002b0008ffd60006001d0001002effed00010008fffd00000022ffef0005ffdc000e0020ffffffeb000b001800010000fff9fff30018fffcffffffec000fffe8fffbffeffff800140006000200090011fff30006ffc9001affec000cffe700110005,
41ffd9ffecff81ffe10020fff60029ffe90023ffeffff1ffc20019ffee0019ffeaffe3ffbefff8fff700090016ffbffffbfff3fff8ffefffeefff2fffe002800190012ffecfff0ffef0019fffefff200150004000000030009000a0000fffdffe100000008fff4fff30003ff900031ffdbfffcfff2ffe3fff70020fff2fffaffdc0005002400060007ffe8fffaffe7000b001e0025ffda0012ffecffff00080015ffeb001cfff9000efff3000a002700050016ffef0000ffeffffcffe0000c0025fffb000fffe2fff5ff99ffe50015001bfff6ffec001d00030017fffbffecffe700220019000bffecfff7ffed000bffec0010ffd00010003300000000000affdd,
42ffde0022ffedffecffebffd2ffef002000050005ffd5000dfffc00050008ffffffffffd20004ffee0025fff7ffec001400060002000effc9ffcb0004fff3000cffccffd1fff6fffbffc1ffffffed001c0006ffe200120021001b0018ffc8001bfff20031001800050006ffedfff200220023000afff2fff3fffbffeefff8ffe5ffe1ffda00180039ffd2000700000003ffd8fff5001d0003fff9fff4fff600000000fffc0001004f00510003ffceffe4fffc00360000fff9ffedffe8002a0023000a0000ffe4fff9001bffd9ffff0011fff1ffe2fffb000000170071ffc10021fff8fff0fff9ffe20021001c0017001dffd60032002a000cffe4000c00240001,
43ffd5fff7fffefff8fff6001e00130031000100080020fffe00010016000affa8ffd9ffd4fff00008ffe2ffe8ffeb0000fff3ffba0000ffac0038fff4ffe0fff2ffa60015ffeb00040000fff9ffecfffc005b00350003fff00029fffffff5ff6ffff8002eff5affedffd5fffaffcaffe5002a000affa5ffebffbc0008fffefffa0003fff4fff20017005affe6000effebffda001b000cfff20029fff1003cfffd000d00060000001effc5ffe8ffecfff60014ff760000ffbfffecffb1ffe40017ffc7000fffd5ffe00012003d00190009ffff0014ffe3fff2ffd3fff5ffd1ffe8000a0005ffcf0002ffdbffdc0004002a0082fff1001f00080008ffe100110001,
440006ffdc001b000e0021fffd0016fff100010006ffddffe8ffec000e000b000900320005fff6fff9001cfff2fff3ffb80004fff800020007ff8affeb000cffc2ffe0ffbcffbbffe8ffbeffe3fff40012ffff002efff4000100170029fff9ffeaffeeffe6ffeafff2ffe9ffecffabffe6fffe0014fff8fff700080001fffc0011ffd40017fff10004002dfff4ffe3000f0001fffc0003001600080017ffef00000007000cfff300130012fffb0009ffdb000800020000ffe3ffef001dffe0000dffcf002300030018fff7ffe3ffb8ffd8002efffaffe3fff4ffa80056fff1000e002f00010021fffdffe4ffc20012ffe5ffeaffda001d000400220005ffa7fff8,
450005ffde0016fff20004001afff80001ffd90007fff400020019fff6ffff000a0013003900360002fffb0015ffd7ffeb00000022fffe00120003fffafff8ffeafff40021002cfffafffcffaf0022fff6002a000a003200170045fffbff9affde000300090000ffc2ffd90000fffaffd6fffc0009fff2001600010011ffe40000002b00140008fff6ffda005cffe6fffffff9fffdffe2fffeffe7ffe5fff8fffe000cffddffe200070002fff2fffcfff3ffeaffe60000ffd80015000efffe0007ffffffe5fff2ffed00020004000afff30017fff30018ffcefffb000fffd3fff70009fff700410006000000260009ffd0ffcd002c000affe80000fffeffd7ffd8,
46fffbffe40000fffe0000ffd9ffeeffd6fffefff1002ffffafff8ffec0005fff1fffbfff0002f000ffff6ffe8ffe9003d0000ffcafff7000dfffd00010007ffec0009000bfffd00120006ffef000cffeb000d000b000cfff40020fff60002ffef00070017ffc5000900000010fff8fff2ffe8000100060018ffef0021002afff4ffe6fffaffc8ffc60004fff600160007ffe0ffd2ffd00008ffe50004000e0003ffecfff9ffb8001700010000ffe3ffca001800040000fff2000effe5000f0007fff3ffd2fffefff2ffeaffd0fffe000b00160018fff10016ffc90008ffc30011fffdff73ffdbffe90032fffdffd6ffe7ffd2000bffffffffffe3fff0ffdd001d,
47ffe00007fff1ffe6fff7fffeffed0011ffdfffe9001c0017000dffeaffdcffd5000efffc000f0015fff1ffd100050000000a001dfff7000dffeffffffff4fffd000a0000fff80006fff1fff7fffdffe3001800000010ffce000bffe3ffeffff50011fffe0008fff30023ffeffff8ffe6002e00010007ffcbffe8002fffe30012000dffe5ffeefff9fff8fff6fff2fff50002ffd70019fffdffe1ffedfffe00090000ffa8ffc0fff4ffed0000000a0008fff4fffd000000140007000bfffa0006ffeaffd40027fff400020005000afff2000affe80000000affdd00130006000c0016ffd6ffd30002000e0021fffd00000005000fffe70001fff4fffcfff50016,
48ffd90002fffe0002ffce000effedffe90006ffe800240003fff3ffef0004fffdfff600000002fff8fffbfff4000dfff8000500000005fffdfffbfff3000c00000001ffea000a0009fff9fffcfff60010000c0007ffccffd5002afff9ffedffde0013fff8ffdf0024000afff4ffe7000bfffbfff90020000000150005fff1fff8ffe5fffdffdefffd0014ffe300000004fffdffe1fff0fffb00350006ffba0000ffe9fff9ffd10000fff2000affe8000d0000fffe000000040007fffb0007fffcfff800130001fff2fff6ffff0009fff1000affeb0010fffcfffb000c0003ffe7ffd1ffa0fff5002affeffffcffeeffe5000700010000000dfffa0000ffeeffef,
49ffcf0000fff1ffc5000d0003ffb500040005ffe900010015fff0ffea000effc90000ffe1ffeefffb0000fffdfff5fff500130000fff50007fffcffec0000ffe8ffe800010012ffee000300040029ffe3000bfff8000a000d00250004000cfff60041fffc000cffe80018fff6001700040014000a0023ffe4fffe0009fffc0007000a0005ffe0ffea00000004fffe00130001fff3fff8ffebfffcfffeffef0000ffff0001ffd80002fffbfff3000fffe9000efff700000000fffb0006001dfffdfff90007000d000a000cfff7fff5ffd20002fff00005ffea000200100003fff70013ffee000efff4fffafffafffefff5fffafff20000fffd002000080008ffef,
4afff2fff9fffaffda00050001ffed00110001ffe9ffdd0023ffd8fff3ffddfff4ffe5fff00007ffed00060025ffd6000a000ffff0000100000008fffffff6fff300140019fff600120005fff5ffed00220002fff30015ffed001efffafff2fffd0004ffe9fff2fff90003ffd2001affff0013ffb40011fff90016fff900350016fff0fffa00020006fffeffd5fff4000c000affe0fff90000fff9fff3000000310005000dffe3000afff8ffe9ffed0000001700060000fff3ffe6fffcffe50011fff0fffffffe00040000ffeb000dffe20008fff7fffb0000fffe000efffbffecfffdffebfff40005000afff4fff1fffefffb0007000600050018ffe80001fffa,
4b0012ffea0005ffe500020000fff8fff40005ffefffe5fffa000fffed001200000016fff4fff8fff60015fffafffb0004000f0023ffe3000bfff6fffdfff50001ffea000d0008fffefffb000ffff6ffe20005fffd001bffd9000f000affffffc80009fff70000fff7001c0016ffdaffcb000f001afffe000d00110001fff7ffc30022001bfff7ffff0002fffe0005fff5ffeaffcc001a0009fff8000a00080019fff7fff7fffe0000fff4001e0012ffe8fffafff80000ffeeffc800210006fffe0001ffe8fffd00000014fffd0004001e000affec00170015ffed000dfffffffe000300100000ffd80009ffe50001fff9fff8000d002500110008ffe8fff5fffb,
4cfff6ffe10007fff2ffd2fff9fffbfff2ffdafff10003ffeffff5ffed00190012002bfff600000008ffea001b0025fffb0011fffbffd300030012fff8ffd4fff0000dffddffd10004000bffee000afff700040010ffebfff7000ffffd0013ffe50004fff000040018fff3ffe4fff7001d000a0002ffa7fffd000afffcfff1fffaffcdfffefffffff0fff9fff5000000110004ffbffffa0023ffecffd7000c001b0010ffeb0004fffcffff0009fff4ff9a0017fff500000004ffd30001ffc200290047ffe50008ffffffc7ffe6000cffe40016001b00150001ffff0026ffe8fffe00160008ffe80016ffd70014fff1000cffdd000d003200270014fff7000dfff5,
4d0032ffe2000a001dfff5fff6fff7ffedffcbfff50014002cfffefffb0000fff2ffd20001000b0012ffc8ffec002bffee0012001afffd0011ffaffffe0004ffb0fffcffca000ffffefffe00060010ffd90027ffe70008ffff00250011ffe2ffef0001ffe8fffe000bffeaffdffff9ffa3ffe8ffea0001ffe5000b0000fff6ffe80013000d001bffdb000d001200010004ffe8001dfffcfff3fff700410013fffdfff4ffc6fffbffffffe70004ffe60010000000100000ffdffff7fff30020002bffd80010fff8002cffd6ffff000c00040000ffee0010ffee0009000effc9ffff001b0006fffb000d000cffff00020018fff7fff8fff80016fff0ffeb0017001c,
4e0019fff5fffc00290007ffe8ffb1ffdb001e00040027ffee0007000bffee00010022fff000010017ffe2ffe0ffe2ffeafffaffd3001f000dfff2fff7ffdaffc4fff80009000d0006ffcdfff5fff50000001200410021fff200210001ffd8ffccffe1ffff001dffe7fff9ffe5ff68ffb4ffecfff400020005ffca00100003002effe80008ffd40018fff7ffb8fffb001c0002ffe5fff0ffeefffbfffefff70007002efff5000b0019fff9ffacfff8000400170028000000160000ff8300090002fff7ffde0023fff600060017ffedfffc0027fffc000a00050026fffcffe00012ffd8000a0010fff3ffe2000a0005fff2ffeaffce002600080057001affe7001c,
4f000fffb6ffba0018ffd7fff30007ff730008fff8ffdf000e000a0033ffde0008fff4ffeafff5fff200190019ff710010000300410002fff00017000c0003fff3000000080006fffc0014ffc0000cffbb00050042ffc8001a001cffff0013fffdfff6ffcdffd3ffe2ffed0010fff8ffedffecffa6ffdd0006000600020012000500020004ffcaffe700060001001bffeb003fffdafff9000cfffefffefffd00050000002b001700220033000effd5000e0039ffed0000002c000fffcf0000000bfff3000fffbdffeaffdcffa70007fff20022fffffff5ffca000200410003003700090002ffc5ffe6ffc6ffea0038002f000afffeffda0052001b002d000b000a,
50fff1fffaffbefff4ffe5ffd90007ffe6ffd3fffdfffe0012000900110003001300210014001f0006fffb000afff7fff7000600210001001bfffa000000060000fff3ffca000300160009fffaffe0ffe1000600040004ffc8fffcffeafffbffd10009000d0003fff1000e0014ffbf000d001dfff5ffdefffffff80019fff7000600140008004e000bff91ffb8000dfffbfff50031fff5fff70005000f0000fff7001b00040021fffe0007fff4fffa0004fffeffef0000ffdbfffe001400010007fffbffe0ffe9ffe3ffff002bff990017004dffba00330019ffca001300060019fff50018ffec00290015ffea001cffbaffc2ffe0ffedffed0024ffe2ffb50003,
510003000dfffe00010003ffd1fffcfff20001ffef000bffe700170001ff7000170009000a002e0017ffe90010001dffd50010ffcfffeb000affedfff90009ffe00012000c000e0003000cffe5fff0fffc000c0000ffff0006003afffd00010010fffa0032ffe7ff86fffa0032fff5ffe3000d0009fff7fff9fffa001fffeb0007fff50001fff70004fff00022000c0008fff70013fff8ffe7ffebffed0001ffebffe6ffe700090011ffe4ffebfffeffaa0019fffb0000000000190015ffeefff700030041fff6000affeb000c0005001b001ffff80002ffe70018ffedffe1000cffd4002afff1000b0006ffcfffd3ffee000c001000110003fff30003ffdafff6,
52fffeffeffffeffe3000dffd4fff2ffe5000cffeb0010fffc0001ffeffffbfff5fff3fffe000b001dfffdffebffe7ffff00160004002300020001fff7ffe70003000dffeaffe6ffe5fff7fff4ff8ffffd000d0000000fffe30016ffc10007fffc0012002d0001fff6ffe300150004000cffce0004ffffffe7000c002e001c00110002ffef0009fff600000002fff6ffe500010003000d0009fff100090000fff00015fffe002100030001000afff8ffdbffeffffc0000ffdd000efff0fff5ffeafffd0000000400000000fffb0008ffd8002e00100034fff4ffd5fffbfffb002effacff8e0024ffeeffc8fffeffeb000000000003fff4fffcffe30016fff4ffcf,
5300010009ffefffe00027fffc000f0020ffe1ffe90005fffb0009ffeeffe9fff9fff30006000d00050004ffeafff6000700200007ffdefffe0009fffaffecffe300080009fff0ffc500050000fff50016fff6fffbffbe001b0016ffdcffdefffd0002001cffeafff200190007ffceffebffbd001100120014ffcd0013ffe90011000dfffcfffb000c001a0000fffdfff9fff30000ffecfffffff6ffec000900040004ffed0014fffdfff6000effec001000100004000000110008ffe3ffdaffffffe6fff10021fff700000009fffb000400240009fff7000dfff1ffee000effd7000a0031001bfff5000a0008ffc7fff60000000100060005fffefff3ffee0021,
54fffefff6000a0009ffe00000ffd80014ffedfff200000004fffcffe4ffec000f0007ffec0004ffe0000effeeffebffe7002dffe9000affff000600000018001e00340001000fffbfffdb000c0019fff80012ffe60012ffe50022ffd7fffe0009001d0016fff500030013fff80016ffe80000000cfff700030003000000220007ffdf0016fffcfff30010fffa0012fffa000b00100022ffe20039fffeffe1000affc20006000c000b000dfffcffea00090003000a00000010ffdbfffdfffafffafff0ffe70005000a000fffe9000effce0011ffe00006ffeafffcffde001300040001000bffffffe10008000700180005ffedfff9fff2fff00016fff6ffeefffe,
55ffeaffff0007000bfff4fffffffb000fffe9ffeeffe7ffe8fff0fff1ffdaffb00008ffe8fffffffafffa0005000cfff100300002ffe6fffb000500040011ffe9fffafff2000bffb7000800140020ffedfff6ffea0013fff7000500000007002d0010001bfffffff6001efff3fff10007fff00004ffedffe1ffe9fff1fffa000800050011000affff0016fff00000ffe6ffd4ffedfffb0015fff20001ffed001ffff70001000600170000ffff0030fff40016fffc0000fff3ffcdfff600010000fffaffe5fff8000c0003ffec000c0022001f0000001c000cffef0006fff6fffeffec000700120028ffe0fff8fffffff9fffbfffb000000060009ffe2fff7fff6,
56fff2fff2ffedfff5ffe1ffe9fff200090012ffefffddffbfffeaffea001f000bfff3fff5ffff001cffdc0018fffefff50023001100020000fff80003001e0000ffec0022ffffffd4ffdc001cffc7ffdd00110002fff4ffd4000700040009fffe000900110001fff10008ffe6ffe7000dfffaffdf00060004ffe5fffbfff3000000000001fffbffec0000fffafffbfff30005001efff1ffc60008fffc00030026ffddfff70012fff0000e0011fff3ffcffff5fffe0000fffa0004fff2fff1000200250025fffa0006000900180024ffe50021000bfff00002ffc2fff6ffedffbd001dfffa0010fff90014000dfff500190001fffc001a001efff1fff8ffeffff3,
57002effeeffffffe2000bffbeffe3ffd7ffecffeb00040002000effff0013fff9ffeaffec000ffff700290009ffcc000a0020ffe3002cffffffd00002ffe6fff100000005ffd6ffe6001000270004002500000001fffbffd1002bffd6000d000e0004ffefffdc0013ffe4001bffe00000fff50000ffd9ffefffd7fffcfff8ffc9000afff2000c000bfffcfffdfffb0007ffee0004ffe50014fffcffeffff30014004000080008001000000003fffcffd1fffcffec00000018fffe0022000f00220012000e00060022ffe600000016ffa10020ffda002afff50016fffdffeefff4fff50016fffa0004ff6dffb60005001d000bffe300030006ffecffe8fff00018,
58fff8fff4ffd200120016ffd4ffd7fff00014fffe00000001ffec000d00170000ffec001e00130001fff9000e0022fffd002d0009fff50005ffd60002fff40005ffebffe0000a000000060011000000230009fffcffeb0011fff6000c0009001ffffffff6fff200050006002d0007ffebffccfff00007001dfff7fff6fff9ffe80010fff100200007000000050048ffee0014ffeefff0ffdb0006ffca0013ffe8000cffd7000f0006ffda0026fff7001f001a00050000ffc700000006fff8002dfff0fff8000dffe700240000fff0fff20021ffd6fff7ffd20012ffffffda000affecfffd000effecfffe0016ffe9fffcfffbffeb000b000bffecfffc000bffba,
590003ffd4ffa7ffc20015fff700190015000dffff0006000000070022ffb0000200020019001a0017fff5ffdf000cfff30026002cffbcffea003ffffe000cfff50004fffcfffd001f001c001ffff60024000000190017ffcfffe8000effedfff8ffecfff1ffd50015fff10034ffc3ffe1ffda0026000e002bffed0003ffcbfff9fff50027fff70003ffe0ffff0003fff90010ffdc0039001200000017ffa6fff6ffd3fff2fff8ffea000cffdd000100080016fff400000018ffdbffb600150003ffdafffbffe5fff2000effdfffc5ffe90056ffec0007ffec000f002b00000004ffda000cffeafff5fffc001b0005fffbfffbff9a0014ffcb00330003fff60009,
5a0014fff7ffdefff1000bfff40002ffd9fff10003ffc5000b0002001e001effffffc2fff10000ff9bffdf000a0029ffb40010ffed002b000affe50015ffe9ffe6ffff000d0005ffc80034fffbffff000a002b001dffe7fff100140018fff50002fff80008fffdffc3fff6ffd5ffe0ffa60001ffed000affeeffe8000bfff2ffef0000000cfffb0016ffdeffd60030ffd8fffcffc5fff7001e0022ffbffff3fff6fff90010fff800100014ffee000affc00047fffaffff0012fff1001efff9ffee000b0020ffe50017000c00190020002f00040044001000310016fff9ffc8fff5ffefffaf00180018001e0010ffd70023fff0001bffeb0002000bffdb003cfff3,
5bffeaffdafff5fff9fffaffe9fff8ffd100000000ffe0ffec003c0021ffe70010ffcb001e000e000700090013fff9000e0013ffe200050039ffe10000fffefff5ffddfff2ffcd00100009ffe4ffe6001700a0fffa0003000b0014ffe7ffecffbb001bfffb0025ffe0ffdfffe7ffdd0013fff4fffeffebffffffe40013ffecffe4fff5ffea001fffeb00190010fff8fff20035ffef0002000dffd1001f000b00010035001c0006fff0fffcffbf0017000c00110007000000150005fffefff7fffffff6000affd9fff00009ffb7fffb0002fff9fffa001cffefffe70018ffd6ffec0018001f0005ffe5ffe6ffd1ffe60012fff20008fffa0008000a0015ffb4fffb,
5cfff3fff800000000fff3ffd10010ffe7fffffff6ffef001900130000ffdffffc000bfff5001a00030001fff60000ffed0014ffdcfffe001d0017fffeffcbfff7ffde0009ffd80006fffafff000040012000e0017ffe5fff9fffb000afffeffeefff00000fffcffeffff10008fffaffe3fffc000500000014fff20014ffedfff5fff5000affd6fff4fff90001ffe70007001f00140000ffeeffd1ffd6fff4fff6000a000afff00016ffe80014fff50017003d00010000ffc7002c00090019fffafff9ffbffff30002001a0003ffe0fff1fff9ffeb0007fff600140018ffc50004001affaaffedfffaff98ffea002affedfff5fffe000a0000fffdffee0015fffd,
5d0000000afff3001dffeffff5001f0000fffdffeeffd9ffe7001efff9ffc8fff4ffe20016fffd0000000f001dfffafff7001fffeb00020030fffdfff300060009001efffc002bfff80000ffe5fff2ffec001a000c0020003dfff4ffc1ffe1fff5001c0013000ffff4fff4fffefffb000affddffd3000700100007002ffff40011fff5001dffe9fff7ffff002f0028ffdcffc9fffe0007000bfff3000cffecfffdfffbfff6ffeffff7000bffe3fff7ffe50011ffd8ffff000e00370008000dffffffffffec000affed0002fff6ffedfff1fffcfffd0007fff0000f0017fff20000ffe50009ffbd00160003ffe0ffc9fff4fff9ffebfffc0007fff4000700130008,
5e000dffdd0012ffb00013ffec00170012fffbfff0fff20009000cffefffde00050035000f00150018fff9ffee0006ffee001eff9cffc90008001efffc001900010001fff8ffde0001fffdffd00004fff80018002ffff3fff40000ffec000efffe0004fffb00140006fff100000005ffe9001affb9ffffffbcffeb000e0049fffb001f0019fff7fffe001affedfffcfff1fff6ffebffd7fff90004fffc002afffafff90016002afff7ffeb001b00010000000ffffc0000000e0017ffdd0001fff7fff2001600060000ffd4fff6fffe0000fffb0004fffeffebffe00021fff0ffd3ffe9fffcfff400080009ffeeffb70009fff6001bfff5fffbfff2fffd000fffda,
5fffee000f0017ffc80000ffe8fff80023fffffff9fff000230037ffe1ffcfffffffeaffeb0000000b0004ffd200000010003e0006001d001cfff80000fffbffccfffe0002fff60037ffde000bfff3000f00000009ffefffb6ffeaff9bffedfff9002afff2002000080018ffe0fff4002ffff7000000020009fffffffaffec000cffc70044ffdefff4fffc0023fff9fffdfffc001affed0009fff5fff0ffe50001fffc0016fffa0001001e000f0010fff70007ffea000000020008fffbffd5fff7fffe002a0022fff7fffbfffbfffe00110006ffee0004002c000b00270004ffed000b0015fff6fffdfffc0011fff6fff7fff3ffe8ffe4001cfff2ffaa0018000c,
60ffff00070027fffa0013fffc0006001dfffefff8fffdffdcffe0fff5ffe4ffdeffd3ffdf00000006ffe4ffe70000001b002dfff400000019fff40003ffeafff3ffefffee00050037fff0fffafff4fff900080007ffd4ffedfff60016fff6fffd000dfff8ffecfff7fffafff50023ffb6ffe2001effcffffeffda0006fff2fffa0022000f0000ffe90003fff8ffe9ffc1fff500150006ff8e00320010fff0001d00380005000b0000000cffdbffe300350015000600000002fff9fffd0007000d002effe4fffb0008ffd6000b00200000000900020014fffb000f0003fff5ffec0006fff2ffeeffeafff3000600010017fffc001ffffeffffffd9ffd5001efff7,
61000a0005fff7000cfff4ffee0025001cfffcfff5ffedfff3ffeefffd0021ff8d0001fff7fff80012ffeeffe3fffe00220018fff6ffcf00140021fffaffdd00090014fffe0005ffadffe30019ffcc001d00160004000a00060019000d0006ffeb0000fff80006000efffeffd8fffc0011ffffffdfffdf0011fff90008ffe2ffe6ffd20000ffeb0014fffc000f0009ffa20024fffbfffafff30001ffd2fff8001fffcfffe6ffd0fff30002fffdfff300060004fffc0000ffebffe9fffb0012000a0000ffe0ffc7001effe200210013ffd2fffdfffaffdf0003ffe8002c000cffc7fff50017fff8fffd000fffb60003001afff5ffe500110020ffeffff900110005,
620006fffdfff00019000fffcefff100180004fffaff890029fff000050022ffe4000d0006fff4ffec000e0010000300160010ffe0ffe30020ffd5fffdfff9fff2ffd5fff3001b002cffe80016ffedffd5fffe000effd00019fff2fff30002ffec0005000c0010000effd5ffe80018fffd0013ffd1ffd8ffd5fff7fffefff6ffea001400050000fff8fff600010030ffedffd9ffea000ffffdffed001efff70014fff00018000d0000fff6ffe7ffec001600380015000000080012ffff001500160010fff7fffeffedffdc0004ffea0006fff5ffe20033fffa000900180000ff99ffec000cfffefff9ffdeffb7ffe50009fff6ffe000270039ffdd00040015fffd,
63001d0002fff5ffff0002ffde002fffe100240005001a0023000c00130013fffb003700120011000a001dffd5ffeb000f00000015ffeefffc0046000a0027fff8fff2ffd0ffde0001fff60024fff8fffa0031fff4ffb8ffc3fffc0015ffeeffdafff80005ffea001dff98fff10007fff30008fffc0035001a0002ffe7fff8ffeffff1ffe30017fff3000affffffc7ffdbfff40017fff60010fff2ffe0002bfff7ffe8ffdbffeb000fffdfffe5fff7000c000700000000fff600080030ffe1002c000700190000fff60000fffa000cffbc000f00110030fff0001500040024fffdfff6fff5ffef0011ffd90000ffd90007fffb0002000f000afff2fff1000bfff5,
64ffe4fffcffe8ffe30008ffef000bffcbfff3000700190023fffe0021ffe40027fffb00020016ff82001600000006ffeefffaffe800460014fff2ffe80016fff9ffd7001efff700130008ffef00270016000900140005ffdafff8fff7ffdcffd6ffe0fff20004003cfff2fffaffe5ffdc0004000a002000090000000b0000000efff60001fff60015000cffff000fffdcfff3fffcffd0ffff0003fff3ffd5ffe4000fffd0fff1ffda000dfff3fffc0000004000060000fff50034000400130016ffbc0011001dffec0010fffe0017fff60020fff4001c00150000fff3ffd0ffbd0025fff1ffebfff0ffc50017ffee0016000e0042001b000a003e001bfffc000d,
65ffd2000dffeffff70007fffffff8ffe7000afffbfff6fff80014001f000c000a000afff9fffb000000530011ffe80006000f0004ffc2000efffe00130019fff5000effff00270007ffe5ffb3fffa0004000efff80011ffb8002d002700260000fff9fff9ff7affcdffe40019ffe1ffdc0005001fffea00240025fffafffffff4000b000afffc0012fffcffdcfff6fff9ffe9fff0fffafffdfffbffd6001afff8ffff001c0000002700070010ff7800350045000a0000ffd0ffcf0024fff000000008ffc8ffea0014ffeafff8ffe4ffdc0001fffe0001fff60023ffd50022fffffffdfffa00080025ffbcffd70016ffeffffd0006ffefffe100280008ffa5ffe8,
660017ffc30009000d0005001dfffa001100440006fff1000cfff40019ffa4fffe001b000d002dffd2000c0003fff600090011000f00020001ffed0001fff8fffcffd4ffeefff60001ffdefffaffdffff5001800090022ffff0013ffd3fffeffcf00150014ffd7001afffaffd4ffef000500090011ffe6001affeefffcfff1fff8ffe1ffd7002efff30005ffdb0024ffe6ffd6ffff00140000fff6ffebffb2fff5ffe9ffe4ffe9001f00090009001a0005001800310000001cffffffe80005fffa001cffeeffcd002b000dffd8ffe6000a001effe9fff2000c001efff2002ffffefff3fff0fffdffe8ffaffff0ffd9ffc8ffe7fffdfff9fffe00280026000dfff9,
67fff9fff8fff10002ffe1ffcc0000fff3ffef0000ffcaffffffc40013ffeaffeffffbffd20025ffe3fff20000ffffffc10013ffe700140019fffdfff000220005ffb3ffe5ffed00000004fff6ffe8001e00250019ffc1000a00050000fff7fffe00090020000efffd000e00150014000dffe500060014ffc8003e0016fff7ffec0006fffa0003001a00030001ffeb001afff90000fff7000bfff5fff8001afff2fffdffe8ffe0000efff20010ffbc0013007200040000fff90017ffeafffcfff6000afffdffe60004000dfffeffe4fff70000ffeeffeffff7ffd4000e0022fffafff2000d002bfffd000afffe0020ffd2fff4001bffeb000f0008000cffe5ffec,
68fff80001ffec00000010000c0016fff1fffbfff9ffe1fff5ffc60001ffedfff6fff1fffc0005ffe3000400000042ffee00120016000d0003000a0008fffdffcd0026ffe5ffe3000affd4ffe9fffb000e001a0024ffe60013fff00017fff500050000001cffefffedffd3ffe9ffef0001fff20036ffec0038ffb5001b000a00150006fff70011ffedfff5ffd0ffdeffe0ffd4000bfff7fff50000000200030008fff1ffe5fffe0023fffbffc90000fff6fffd0007ffffffcc000800140015ffefffef0000001dffecffed002500110016000600060008ffff000100120000000bfffd000affd3ffebffdeffe5001afff70015fff8ffee003c0013001c000b0000,
69fff50005ffe10004000efff50005ffe700070000ffdc001cfffbfff2ffc0001ffff9fffe00190011fff00023ffe8fffc0016fffa00000021fff90001fff80000ffcdffff001b000800000006ffea00160008001cffc600340000ffec00030000000100170005ffca0000fff0ffd80004ffdf0014ffe5fff0ffec0017fffafff2ffd600170006ffe6fff3ff61ffd3000800400000000bffe5fffe0010ffe7fffdfff6ffc9fffa0019fff40014fffc00000031ffc0000000040005ffecffbbfff2fff5ffdc000bffe2ffec0030fffa001d0008fffd00080032002000010010fffaffd6001affe8ffcfffe3ffeb0000ffdd000c0023fff2000c0008ffcafff40008,
6afff6ff95ffeaffe6ffff0002ffeefff0ffee00010013001cfff9fff200000015ffecffdf0023001c003e0022ffe10012001cfff9ffcd001500120001000ffff4ffecffde0003ffda004700010025fff200170017ffe3fff1ffe5ffa80039000f001d00200027ffdd000200050000fff0ffee000cffd8fff8ffb8fff30017ffcafffc0000ffbd002f0008000a000c0004000300140000ffffffecfffbffcb0008ffeeffd80015003fffedffffffffffe1ffffffd400000003fffd0019ffd7fff6000d0001001d000b00000000001900070008ff90001efff0ffe60009001fffee000affe9ffe5001a000b0012ffdd001d0032000bffe80020fffbffd6ffd80008,
6b001f000600020025ffea000c00160002003dfffcfff0ffdaffdf0003000aff740020ffd7001100090009ffff0011ffd5000fffee000b0013fffffffb00030017ffebffcaffff000e00020008fffbffd6ffff0000ffb3fff4ffdafff70014fffd00050005fffeffe1fff10027ffee00080005ffe4ffdbfff9002cfff5ffea0023fff4fff10027ffd5000ffffd0029fffafff0fff7000dffe70001ffecfff0000b000a000cfff3004400000002ffe3fffb0012ffac0000fff3ffcc0007002a0004ffe40009001b002effe0fffc0011ffe40028000e000b00170013001a000c000f001800030005ffea000b0014ffec001cffeb000fffe90026fff8ffca000cff85,
6cffe5000bffdeffb4ffddffd100030000ffea000300050009ffeb00030016000f0000ffdf0010ffcfffebffe7fffc00030008fff2001d00150001fffffffdffd9000cffb60022fff1ffb50013ffdd0012003d001a000f0014ffe3fff00021fff90001ffdbffe8ffcffff2ffeb0011fffd0001ffd10019ffc3000efffdffeeffda0017fff8000e0019ffeaffebffdf0000ffefffeeffd700250016fffe004f0026ffffffe300350016000a0004ffebfff9fffbffef0000ffea0013fff4fffa0009ffec0006fff0fffa0010fffc0004ffdb00120009000700080000fff6ffe3ffdfffedffee002dfffc0006000a000e000a0001001d00190017fff80018ffed0002,
6d0001fff9ffeeffbd0011ffc4000a0000ffec0000ffff0000ffb5000400190009ffe10009fff4ffed0000ffdb0015fffefffbffec000c001bfffbfff30014fff5ffebffcf0003ffe40022001efffaffeb0054ffe8fff60011fff9fffe000fffef000ffff90005ffe2ffc3fff00005ffce0010001e00390043ff910006fffd0012fff3ffe8fff1000000030017ffd7002a0002ff6effdbffdeffed0018000efffcffef0018fff4000affe1ffb6ffd9fffd0005fff20000ffff0020ffe2000a0028fffdfff7ffdbfff80028fffc0001001afffe00090022fff90018001f0018ffe7ff84fff4fff7ffdeffb200320020fffeffffffc40024002a001efffd00060005,
6e00050003ffde000d0003ffacfff8ffdbfffaffff000fffedffab000c0017002bfff70011ffea001affe8ffd0fff1ffe60009fff700000021fff50001000bfffaffef0010ffd60005ffe600130002ffcf0047ffe400460008001a002600150009000bffdaffc5fffe0009000fffe2ffd8000f0030ff8fffe50001fff0ffffffd8fff1fff700330002ffa6001bffd30004000dffe4002effcf0001ffe60008001bfff6fff5fff40015ffeffff9fff5000dfff200110000003e000afff8001b0031ffccffdcfffbffec0015001dffccfffb000afff6fff70000fffd00260017ffe0ffe6ffeeffdd000e0013ffef0004000b000fffc3fffa00120024ffd7ffed0010,
6f00070009ffe50035ffefffdefffefff3000afffb0013000300140029ffea0021000c001c00060032fff6fffffffaff79fffafff2fff2001700080006001200000022ffccfffb0025fffd0006fff70023004700160027003effe80014ffd2ffe0fffd0000000600270009000fffe7ffda0004ffde000bfff8fffd000400110010000c0004ffdbffe7ffe8001bfff40027fff900000003ffd8ffdefff4000e0017ffdc0004fff90028fff10013000b0013fffcffca0000fffc000a0007ffb5001c0004000300200001001affec0016002f00530019ffe3fff100070008ffceffd5000e0021001a0033ffdc0016fff9ffdaffd3ff8dfffd00220022fff2ffc00006,
70ffe7000afff5ffb2ffc3ffeffff20002fffefffffffd0000fff90024ffe80009ffbc000f00100000ffc5ffd40005ffd2fff100160019ffd3ffd8000f0010ffee0002001b00140007fffffffeffe1fffd0003000100020013004b0017001000140017fffeffe00000fffffff10001fffe0021fffbfff2fffaff9b000a00180015fffcffdbfff4ffe5ffeffff80018ffe5001b0018fffafffcfffc0027ffc60001000b0019ffdbfff10010ffd900220017004e00260000fffbffe00006fffafffa001b001e00100017001c001e002b002f0004ffe9ffe800030005fff50010001a0039ffb4002cffceffc6001c002effd7ffdeffeeffecfffa0021004b000efffe,
710019ff77fff0000f003d001cffd7ffe10006000c0012ffbdffd500200035000d0000002a00060019ffe5ffb00007fff9000bffc90012fffc0002fffbffdfffee00110017001dffde001c000bffecffc0003300200017ffdf00240005000affc1004dffe90013fff3000bffb60025000efff4ffd600110011fffc0003ffeeffbeffe00010ffb700310006fffbffcfffc20013002900320007ffedffe7fff10000ffefffcdffe6ffd8ffe300030004001d0046fff600000024fff2001bffe9fff900040012ffda0009001cffe100290013fff4fff10013000e0004ffe9fffeffe0ffd3000d0001fffeffeeffef001b0029000c0018ffd20012001dfffd0016ffec,
72000fffd40010002cfff0ffdeffe4ffe8fffbfff9ffe7001bfff5002bffc60004ffe7fff9fffffff7fffc00130007fff4ffffffc0000e0012ffbffffc0019ff85ffaf0015ffe7ffe1ffc1fffeffbc000000450016ffc3fffb00160055000200130015fff2ffd20020fffb000affe5ffcd000e0037fff3ffc60000000cfffaffd0ffdaffceffb0ffd9ffd6ffe0ffe9001800060037ffe2ffebffff002e0010fff700290006ffe50006001400180013001f004a000400000014ffe6ffcc001c0002000d001dffde0014fffe0038fff000000008ffe40006fffb000effdb004a002bfffb00290022002bfffb0013fff30004ffdeffceffcafff3fff700180015fff7,
730004fffa005c00090024ffb1fffdffe1fff900020017ffeeffea001effd1fffc000000130005ffe2fff20016fff3fffc00060013000800230026fffb0025ffd50008ffd0ff7dffc0ffd3000c0010fff30061fff3ffe4ffcbfff7ffd2ff8f00090003fff4000f0005ffeefff2ffdc0008000bfff7fff3ffda00270027ffe2fff50018ff8f0002003affa4fffc002affbe000a0000ff9d001ffffdfff600120008ffe6fff8fff7fffb0004fffdfff2001d001dfffb0000ffd5ffec0009001afffc000ffffaffbafffe000affc6003affdc000e00000006fff1ffebffecfffb00110035000700100001ffeaffb5fff30022fff6fffcffd7002bfff50000fff6ffd4,
740019ffd8fff7001effd6000c0013ffddffe7ffff0005000efffffffbffe00013000f000f000500010030ffdcffe600070010fff70033fff6ffd00003000bfff1ffe70024ffe1ffdd0004000effc8fff8000a001dffe70018002fffe2ff84fff3fff0ffeffffc0034fff1fff80006fff7fffdffdeff6cfff200340007ffef0000ffffffe600050033ffe2fff1000ffffa00050029fff8fff9ffd80007fffd0018ffdb000a0007ffe500460001fff4ff8f0023ffd30000fffeffe6001f000bfffeffe2fffaffe50006fff8ffd80001001f002200010006ffd0ffdf000f00060004ffbc0010ffdcfff4fff3fff8000afffc000c002affee00080001ffda001afff7,
75fff2000efffcffccffda0001ffe1fff1fff700110020002900050007002e0032ffea0002fffefffeffdfffc2001100280004001affdffff4fff9fffaffa1fff4ffbe000fffedffe70016002400310005fff1ffeaffd000190030000cffd2ffb3001dfffa006b002affed0018002fffeefffcffdcff5effee0016002fffe8003cffffffcdff88001b0038ffe9000bffd8ffe3ffcd00310028ffecffd900390013fff70005fff7fff6ffcf0019000affc9003f00710000ff78000cfffa0005002800010001ffdffffcfff5002d0017002a003bfffbfff0ffd40022005bfff2003bfff60011fff8000bffe7ffeeffeb0002ff6ffff80004ffe5000effbf00250003,
76000dff7b0000003500080023fffdffbf000d0000ffefffedfff3000a002bffedfff80009000e0023ffe7ffbb000affa6fffd000f00130017000b0000ffedffd8001b0008fffeffd2ffedffff0002000100150007ffd5ffdd0017ffcfffae00070000fff9fff4ffcbfffeffd9001dffeaff85ffe2002e0038fff3fff5ffde0016ffdcffda001600080002fff40000fff30003ffff00210006ffe3ffe20001fffe000e001f001c0008ffe1ffee0000fff1001b000800000044fff2001dfff1000a000dfffdffdbfff5ffdf000afffb0011003900190006fff1fffcfffa0000fffc0007fffd002effe9000e00000018ffd5fff9ffe4fff70011fff80000001a0000,
77000a0000fff10043ffe30032fffaffc2ffd9fff5002c001200150028fff70014ffe70029ffdf00140004001d0000ffcffff70040ffbb0015fffb00010000ffd0fff6fff3fff6ff95ffc60016fff4ffde0044fffdffdf0009001f0010ffc5ffe900040017fff1fff8ffd5ffe1ffe0000800170034ffce000cfff8000efff60006ffecffe0ffc7002affc20018ffdeffd10020ffc4ffd90019ffc5004e0012002100090032fff5ffdefff20023fff400180006ffd60000001c0000fffe001900270008fffcffb9ffda0010ffcfffe2ffe60000fffcffe0fff2ffc00031002fffff0000001e0000000c0004ffedfffdffe9ffc9ffdcffe5fffa000e0006000ffff6,
78fff3000000690010004d000cffe3fffc000d00050019ffe3fffc0025ffff0035fffcfff30004fffa00100002ffebfff5ffe9fff4000800070008fff20005ffdd00000005ffcd0000ffce001a002a00100047000bffbd001c00070044ffefffdffff2fff9ff8c000200050012ffda0000ff81ffeaffd70004000d00000002000efffefff2ffef000c00110013fffdffed0028ff86ffeeffd3ff8bffc80029000fffe8fffd00160007fffafff10007000e000a00220000ff9f000ffff30014000cffebfffdffc500030003fff1fffa0008fff9ffde002c001bffe100700001ffc90024000800340021fff3000900090000fff5ffaeffe50008fff9ffdb00070012,
79fff4ffe5ffed0017ffae0022ff9affdafffcfff20029fff7ffff002b000100190000001efffaffe10026ffd00013ffff0000ffeeffedffe6fffe0000ffe4fff8ffd7ffdf0003ffedfffe004900230004009a000bffcdffd80013ffdbffe4001c0027002a0010000000040020001000110016fffaff4c000600240004000800290016ffe4001a002a001300060003ffebfff0000e0009ffcc00130000ffc50001000b0007ffc1ffde00340024ffeaffdafff2fff4ffff001b00010003fffb001efff10035000fffecffebffc60009fffa0004fffb00000009fff90048fffbffedffd40004ffe2ffe3ffd2000e0016fff4ffff002e00260008002c00100000001e,
7afffcffffffd800040017ffd6ffdfffddfff300020038fff5001c00260010ffe6001900260009fffaffe800290006003f000cfff7fffe0011ffd70004fffaffdaffe1000b000c0022000c0001ffe9000500200022ff96fff200160020001300100005000affe1000bffc700290022ffb7ffe4002c003700180025fffeff8cff7afff00010fffdfffd0005ffe00003fff30008ffd2ffe2004efffb00090004000ffffa001bffeafff3ffcd0013ffedffff001900250000ffc50036fff50024fffaffd4ffc30002fff50024ffee0011ffdc000afff3fffe0014fff2ffe2000fff94fff2ffe500080006ffe3ffcb000a000e001a00260031ffe7001eff96ffe90010;
