; shape: 16 depth x 2056 width
memory_initialization_radix = 16;
memory_initialization_vector = 
0119ed001c07efe9000000000005fe1400eb0800faed10000000000000f5fafc00f50300eef20c050000000000f3f6f90014f7000c14fdeb0000000000090d040001f5000005000900000000000b080c00fd0d00fff1fd080000000000f7f9ec00f20c00fee602050000000000f5ffeb0009f9001504ebfc0000000000fe060600fff700f10e160d0000000000150e0b00ee14000cea0c1b00000000003cc5e00009f500200ef2f5000000000000f81000fdf700040d0801000000000007060800ff00000cedeef80000000000f6fef900000c00fcfdfa22000000000019c9e500f20a00feedf7040000000000fafaef00f9110000f2fcf50000000000f0f8f100,
02f8fa00f20a170c0000000000120f0c000807000c04f6fe00000000000714fc000600001309fb160000000000070d050012f5000a07f7f50000000000030d070002fc00f610f1f900000000000a030d000df200060df2f7000000000001090d0000f400fd09130b0000000000140c0c000cfa00040afe07000000000014260b000dfc00081000fc0000000000070b0900ef0700faf700030000000000edfaef0003f50000070c1400000000000a140c00060c0008fbf50000000000000a1af90008f600080ff8f70000000000090c0e000efa000d0e07f000000000000406080009f6000606feff0000000000080a0900e6fe00ebf41d06000000000004f80000,
030cf60014f5f2f40000000000000a05000efb00020df9e7000000000006090e0000ee001400f0fc000000000007071000ff0800f4f201040000000000f8f9f400f50200f7f2fe050000000000f4fbf700000c0009e4ebf40000000000ff04f100ee0300ddf7180b000000000000fdfa00f8f0000a130a0f00000000000b0d160006fa000204fa00000000000012190a00030f0000ebf2080000000000f507ef00f30500f5f0fc070000000000fb00ee000cf500070ef4f50000000000050910000dfc00050600fa00000000000309070007020008fef5f400000000000a0c020007f200180dee0b000000000000000500ec0800fbec0bff0000000000fcf5f200,
040ff600000f05ef000000000001070d0002090001eae90d0000000000eff6f100f00a00f2ec00100000000000f303f200fc0700f6e5fa000000000000f102f3000df000070bfbeb00000000000003120011f5000cfef9ed0000000000090c0f00f30b00f7ea11030000000000ff00f800e50600f1ef170a00000000000100fc0010ed000f0e0bf000000000000e04070006f9000a0bfbfd00000000000e100c0011f900fb09f0ec000000000006030c00fffb00f610120a0000000000100e0b000af1000011f9eb000000000001fe0b000efc000d0b04f400000000000905070012fb002804e3ee0000000000fc0e0a0012fb000810f6e50000000000060c0600,
05ecf900e80e1d1400000000000d080a0011f8000e0be9e800000000000cff0f00ff03001101eb0400000000000416fd0003fc00f50d200e00000000001314ff000cef000909fbf900000000000d040b00f50800e7e205010000000000fbf8f50002fc00fa0b0e0f000000000013080a00f10c00fde90e03000000000000ecf40000f500ea09110d0000000000130e0a00f00a00eff914100000000000fc00f600ffee00fd0b07110000000000110a13000fed000113fb000000000000090012001ef2002b0ff0f00000000000fc0a0800f9f600fa09130b0000000000130f0d0011f30014fffdee00000000000d0a09000bf800000e00f6000000000005010c00,
06fdf600f60c0b0a0000000000140b0900f30900efe70b060000000000ecfffc00fa0b00f8f108fe0000000000f7fcf00007fb000806f7fd00000000000919080004f4000903020e000000000013020d0010fa000603edfa0000000000030e0200090300220fe8f50000000000f601010009f80008fbf7f900000000000906110006fa000404fc0300000000000e170c00f10200fdf5f90b0000000000ecfffa000000000000000000000000000000000004f600010801fa000000000007050b0013f2001b0de2f50000000000fcfb0400ed0600ecea080e0000000000f8fefb0015f600070af000000000000006070f00080200160efd0d00000000000b12ff00,
0702f9002208e8f90000000000f9fe0a0000f300f10c0a1500000000001217090017ea001602ede8000000000009f9130015ee002700d209000000000005fd2100e90200f0ebfb070000000000f305f200fff100fe07fc0a0000000000180c0c000800000307eeed00000000000508080007f4001115f40a00000000000a0b0b000cf6000400f6fe00000000000d1a0900f70100ebf21a080000000000fff4fc000dff000507f8f80000000000050dff0015f9002400efe90000000000fa0c0500f10a00fbed03070000000000ed02f40007fc000702fafc0000000000060f0300f80b00f4f2fa060000000000ee03f000ef0d00f4f905fe0000000000fbf4f100,
0800f2000711fd0400000000000e050d00fd0800fceeff040000000000f3fcf20006fa00f91006fb00000000000b060e00fdf500f7051508000000000017080b00e90b00ecf001040000000000f4fbf30005fa001503f20300000000000a0e0a0006f7001109f20600000000000c0a0a00f4080006e1f0fc0000000000f507ee00f30800ebf509070000000000f6f8fb0004fc000701f70200000000000d09050003f900001000fc0000000000010c0c000bfe000e04fe0300000000000514000011fc000605f9ef00000000000406fe00020e0004e8eff700000000000209f4000ffe000500ecff0000000000080b0500f1fb00e1031e0a00000000000e000400,
09f6090000e4fdf30000000000e4e7f0000ff7002209ebfa00000000001103080012fa001002eff8000000000013050500f60d00f3fa0a030000000000eef8f500f20500f6f4070b0000000000fcfdf3000bf100050f030100000000000405100007ef000d10f804000000000008011800000100fefafaf40000000000e9f00000f80e00eef7111000000000001107f200f5e800edfb34e90000000000f93f1700ff080000e9f6030000000000e5edf900060900f7f203060000000000fffff600faf3000bfff5030000000000f2f40a001df600d902eef40000000000f728010005f1000905fef7000000000002fc15000df2000f15f5f0000000000000001500,
0aff0c00f0fa120d0000000000100ff100fa0400f60a110b0000000000f5f50300020900f9000ef90000000000f2f9fa00fc060000f508000000000000f4f4f500f90700f2fd05030000000000fef1f600f8060005eb02070000000000f2eef200f80c00edef100b00000000000a09f300f30d00e8001b2b0000000000fff2f800050e00fcf905030000000000f5f8f5000af4000e09f0f700000000000b001100f10900f8f40f1200000000000403ef00eafe00f20e25080000000000fbf20e00f20b00f6f606050000000000f6f0f600010f00fef5000b0000000000f5f9f900fa0700fbf505010000000000fcf6f00002ff000e01fbf800000000001c0dfd00,
0bf0000004f208070000000000efeefa00ec0a00fefb0b050000000000f6e8f400f80300f8f0fff70000000000e7f5f10008f6000a0dfcf400000000000a000900fdf60016feef03000000000006ff0c00feee00010d07040000000000f7ef15000dfb00ff01fc0d000000000022060500ff1000fae8020e0000000000f80ce300f70300f3f91017000000000001f4fe0000f20012110c080000000000fdf3140000f1000506fa0d000000000008011200fd0a00faf306000000000000f3eff100010600fefb07000000000000faf6f800f20200f60511070000000000f7f20000ec0400fff003010000000000eaf3f9000bf400050bfff900000000000d070c00,
0cff0b0006f6fb0e0000000000fcf5ef00f4ef00120ff6040000000000faf4180006f0000f0bf908000000000010020f00f8ef000c0ef70500000000000bfb0f00ec050002ec02f70000000000f6e9f000fb0400f4eb0b150000000000f4ebf10009f600070ef8f400000000001104070008fa000b0300ff0000000000180a0600030a00f7e70df40000000000f9f1ec00ef0c00f6fb0e170000000000f6f8f500e90700f9fe06000000000000f9e5f900f70e00f3fc101500000000000a0bf400f8090004ebfff60000000000faeff300fe0b00f7fb0afe0000000000f4f8f800ee040000fefa000000000000dfe7fe00f00900f7fe0e0a0000000000efeef900,
0dfd0c00f2f7010100000000001d0ef500fb0900f5f500ff0000000000ede8fa00f1ff00fb031f0d0000000000eef00a00050900eefd0b1400000000000f0cf300f70800faeb06050000000000f3f1ec0007ec000408f2f9000000000015090b00f90a00eefd0d0a00000000000608f60012f300020a00f200000000000e0f0c00f10c00f4f40c1500000000001504f40001f8000e0dfc000000000000180b0a00f40d00f4e8080b000000000000fbed00f50c00fce504050000000000f4f8e900f90c00fff1fcfb0000000000dcf0f400fd0b00eff30e0d00000000000a03f200f00600f8f205050000000000f2eff000010a0000f505000000000000fbf9f200,
0ef70a00edf40c0800000000000802f80018ef001408f201000000000012fe090010f2000611ff0000000000000b0a0c00f1040000f8060f0000000000f9f0fe00ed0800edf40f040000000000fb00f600f00100fefa0a120000000000f5eefb0007040007fd00ed0000000000e1f70600f40000f6f8020e0000000000f5f0f200f50500f6fa11100000000000fff5fb00fff40022ffe90a000000000002fd0c0000000000000000000000000000000000f10600f8f904080000000000fbfbf5000503000cecf5e70000000000e3e8fd00fff5000c07f509000000000015060b00f30700faf3fffe0000000000f5e9f100050b00fafe16000000000000effb0000,
0f01000003f2f3ef0000000000e3f0fb00ed0c00f1f10f1400000000000d02f200ef0600f6e4faf10000000000e8ebf600e70a00f5e3fcea0000000000d7dcfb0012ec0012fff810000000000009000900f50500edec0f040000000000fcf6f500f00400f80213070000000000f4e7fc00f40e00faf103070000000000ecf7ef00f80400f4f709100000000000fbeff80009fd000503fef900000000001d0d0000000400fd020a0c0000000000f9f9fd00f1040000fa02fc0000000000e8e7f90008f000140df70600000000000b020c00fb0300fdfc030c0000000000faf3fe0002f5000f0efa0900000000000900130021f700fe07faf500000000000a090c00,
10f60b00f6e909070000000000f7fff60005f200050df8f6000000000009011100000b00f3f60a04000000000004faf400f00b00ecf40d0b00000000000c05f20017f3000f0cf8f7000000000011010f00f00400f5ff090e0000000000edf3f500f30600f3f806ff0000000000ebf6f200fae9000a0903090000000000f8f4140011fc002000ef00000000000015060500f00300f7f80d120000000000f6f50000000a0002f405020000000000fef8f700ff060000000e0c0000000000f400fb00fe0300fbfe071a0000000000f7ebff00edf300fa1714060000000000faf31300ec0000f9fe0f170000000000f4eefd00ff0500f5f904040000000000200efb00;
