; shape: 1 depth x 2056 width
memory_initialization_radix = 16;
memory_initialization_vector = 
0100100b00f90019fffbf80000ff00fe00001ee9002200140007eeff0000000000000000000100000000ff0000ff0000ff00fb1600fd0109ff25fb0000ffff00fffffd1500e100d4fff4fe000000000000000aec0012000100d8060000ff00000000fdf30003001d00fafbff00ffffffff00000000010000000000000000000000ffff00000100000000000100ff0000000000000000ff00000000ff0000000000000000000000000000000000010000000000ff000000ff01ff00ffff00010001fff710ffefff0bff0ed6ff000000000000090dfff00048fffffaff00fefe00ff00f30f00ed000000fc0f0000fffffeff00000000000000ff0000000000000000;
