; shape: 8 depth x 264 width
memory_initialization_radix = 16;
memory_initialization_vector = 
0100100b00f90019fffbf80000ff00fe00001ee9002200140007eeff0000000000,
02000000000100000000ff0000ff0000ff00fb1600fd0109ff25fb0000ffff00ff,
03fffd1500e100d4fff4fe000000000000000aec0012000100d8060000ff000000,
0400fdf30003001d00fafbff00ffffffff00000000010000000000000000000000,
05ffff00000100000000000100ff0000000000000000ff00000000ff0000000000,
06000000000000000000000000010000000000ff000000ff01ff00ffff00010001,
07fff710ffefff0bff0ed6ff000000000000090dfff00048fffffaff00fefe00ff,
0800f30f00ed000000fc0f0000fffffeff00000000000000ff0000000000000000;
